/**
  ******************************************************************************
  * @file    network_data.c
  * @author  AST Embedded Analytics Research Platform
  * @date    Fri Jul  1 16:53:55 2022
  * @brief   AI Tool Automatic Code Generator for Embedded NN computing
  ******************************************************************************
  * @attention
  *
  * Copyright (c) 2022 STMicroelectronics.
  * All rights reserved.
  *
  * This software component is licensed by ST under Ultimate Liberty license
  * SLA0044, the "License"; You may not use this file except in compliance with
  * the License. You may obtain a copy of the License at:
  *                             www.st.com/SLA0044
  *
  ******************************************************************************
  */
#include "network_data.h"
#include "ai_platform_interface.h"


AI_ALIGNED(32)
const ai_u64 s_network_weights_array_u64[ 1532 ] = {
  0xbd8f28613ce3f919U, 0x3e2cd78abdb30439U, 0xbdb1c92cbd875de4U, 0xbe14e2a9bd82b99fU,
  0x3e4a121e3da9479aU, 0x3d1dacb2bd8d84cdU, 0xbd7e05e1be13b026U, 0xbc5138fe3ca5b4caU,
  0xbcf149a5bda51c09U, 0x3d2125333dc8ad99U, 0xbda101fdbd2b51f9U, 0xbe3d7ac1bdca17feU,
  0x3b9b5a473dec6bf8U, 0x3e2849e7bdd2fdb4U, 0x3e5c36b3bcda2267U, 0x3c629939bd8534d6U,
  0xbdfcfd98bde6979aU, 0x3e73aeb8bb7f171aU, 0xbda39bb13e646782U, 0xbdfb443fbe444bd4U,
  0xbc49dc7e3d984ceaU, 0x3d441e46bda832d9U, 0xbdb631ed3e14831cU, 0x3e293016be04f711U,
  0x3d451648bc7c1c68U, 0x3dc04ece3d644059U, 0xbc7c48cd3c7ab9c2U, 0xbe0c7a483dda2ae1U,
  0x3d3c1241be08e3c2U, 0x3d9b86b13dba6134U, 0x3c618a393ddf6ae6U, 0xbd89b5543d6b0884U,
  0xbde4b414be3436b7U, 0x3e6e2e573e3bd383U, 0xbe5391eabd42c5feU, 0x3e265bc8bd647d04U,
  0x3c8076793cea9377U, 0x3cb5a676bd0f1b9cU, 0x3be664ff3cbe48acU, 0x3ca50ef2bd807518U,
  0x3d7198e33ce4589fU, 0xbd5fa0e43d0e713cU, 0xbdadd8c0bda607b7U, 0x3dbc833c3d1f8702U,
  0x3cad9a533de64930U, 0x3d28fa61be0f5e7aU, 0xbd8894c63e11a3bdU, 0xbdcc7becbe1687a2U,
  0xbe23c68fbda1e05dU, 0x3e478c2a3d2b055fU, 0xbdee9f253ca01022U, 0xbcdd1893bdf072d5U,
  0x3dbf204d3dde33daU, 0xbe3c60dbbda7a488U, 0x3dd4d21ebdbdec56U, 0xbc9bd3363d4be197U,
  0xbd9f8e76bdacaaf1U, 0x3dbcc5c8bce63d0fU, 0xbd8b1e923d1a2598U, 0x3b77776a3cf20962U,
  0x3e1d0d193d554567U, 0xbe92fd8c3e089f0aU, 0x3e77ee6abe61dbc5U, 0xbe0a95e63e56fbdfU,
  0x3c570acabe109c71U, 0xbdd55e91bc789094U, 0x3e10fabc3c2df38aU, 0x3e3dd10abde0e4afU,
  0x3e20b78cbe60c9f5U, 0x3de2979bbdf2b4beU, 0x3a7ea27cbdbfe985U, 0xbdf5e4993e496a68U,
  0x3dbe7cc7be3108e7U, 0x3df61b6f3d9d3bebU, 0xbe210f463c9f6d51U, 0x3de2565f3db1b8a4U,
  0xbe142cbfbdd705d8U, 0x3e3985c4bd9726b4U, 0x3d2181a139ca6666U, 0x3d82a6efbc2c0a8eU,
  0xbdcaa27f3e1e79cfU, 0x3e2e5487be42ff11U, 0xbe0328173e5e0aa0U, 0xbde50603be5ac63bU,
  0x3ddd803b3e2b2276U, 0x3dbcce16be2dab18U, 0x3dab40253d76ae83U, 0xbdc1c125bd2989c7U,
  0x3c4b31263da511e3U, 0x3dea8faa3de5e17bU, 0xbe2aea67bdfcbf26U, 0xbe1cf171bd0a768fU,
  0xbd83ef9b3e1072f6U, 0xbe12321fbdbad3dcU, 0xbd30951d3e0f052bU, 0x3e206c3fbcdb76f2U,
  0x3d4ebcde3e7825abU, 0xbe4adb0dbdf483d6U, 0x3e2597abbd1a2408U, 0x3cd29e09bd4aba7bU,
  0xbe23868b3deaa421U, 0xbd5de8f1bd1bbb57U, 0xbdda65e8bb95eb44U, 0x3df0c82abd8982c9U,
  0xbdadcf36be28e2efU, 0x3e816d693dd9c5dcU, 0xbd6f3659bded5b73U, 0x3e04209f3e1d933cU,
  0xbe249d1abe0ab198U, 0xbdab5de93e95cab5U, 0xbbf020f03ddab7cbU, 0xbd34e252bde05383U,
  0xba82fb2a3d18bc96U, 0x3ccb23c33e37481cU, 0xbdfb8463be0dbb7dU, 0x3d8de8553d9a5215U,
  0xbcf8cc2b3ce04e84U, 0xbde1fb01bd616f25U, 0xbe4a4d2c3bcf8dc0U, 0x3d41b9673e59b1acU,
  0xbdfefd74bdad7925U, 0x3cf74c8db901b07cU, 0xbbb69518bcceaf2dU, 0x3d053a3e3e5e5e02U,
  0x3cbaf42dbd02eb4cU, 0xbd7ea4873e0a66e9U, 0x3d32c9dbbd4ef01aU, 0x3d90ed973debeed2U,
  0x3c9b4921bd137d37U, 0xbd17b5d23def317fU, 0x3dbb50cfbe4a7c5aU, 0x3d839f183daaec18U,
  0x3d4c251bbdf1cff4U, 0xbe1721a63d835168U, 0x3df76876be1aa82dU, 0xbd9891753e144e06U,
  0x3dd9d891be6ebabaU, 0x3ddbc610bd16ce57U, 0x3d337ba83d5dbaedU, 0xbdefaa973e7dd4caU,
  0xbdaf23763dc60e09U, 0xbdbd22543c1aa540U, 0xbe27189abaa19de2U, 0xbe14211e3e1c0cb8U,
  0xbe103d52bc2810d9U, 0x3e015551bc08bfc8U, 0xbdc75f63be12e6c4U, 0x3d6fc4e43dc17e95U,
  0x3e4f87323e32c90bU, 0x3d1ecf413d3ca52eU, 0x3db003cabe25e2cfU, 0xbd9b95cabe065b5dU,
  0x3dfae1e5bd0a3908U, 0xbdeba4fd3dcdc439U, 0x3d8d5fe8bd9ffc2fU, 0x3da1fd703d2dc423U,
  0x3d99b7fbbe2982c9U, 0xbdb14a333e0ff254U, 0xbe0e5064bdaa889fU, 0x3ddcda423bfdbdb8U,
  0xbdb38b053d87177bU, 0xbdfd0689bd47ce7cU, 0x3b8675ffbdf649b9U, 0x3db628debe0d094eU,
  0x3e13af89bcdbb63fU, 0x3e1884babdc5fda0U, 0x3db7c711bde800edU, 0xbd18cffb3d298306U,
  0xbe0a2a54be1eb155U, 0x3ca3643b3b177ea6U, 0x3e5c581a3cd5e0acU, 0x3dd37880bc1d1c0aU,
  0x3db5a625be0d8c22U, 0x3b93b7303e113affU, 0xbe1ab409bb8176ebU, 0xbc843d903e40796eU,
  0x3d7b44163ddf276eU, 0x3d1a96383dfe193eU, 0xbd1cc3063ddd8218U, 0x3d93f4b73d6f406dU,
  0x3c90b07d3de98aefU, 0x3b760b243c14990eU, 0xbe13c03fbd5b679dU, 0xbd488109bd9d6ce5U,
  0x3d9b762d3da0fffaU, 0xbcd4788dbd5772d2U, 0x3b81aa9e3d9642a1U, 0x3d7c45a1be06483dU,
  0x3d519df33e2cf59dU, 0xbe9cfb00be845457U, 0x3ea45b9f3de90b11U, 0xbe5f26f53c755b7aU,
  0xbdae62ddbe293ee2U, 0x3d54403f3ca9575bU, 0xbcae86b8bbcab87bU, 0x3c941ec4bd6b2d55U,
  0x3d2c32eabcffc164U, 0xbde298ee3def77ebU, 0x3c31ea74bd71fc91U, 0x3d89d2343d93552fU,
  0xbdeb0bb43e640f28U, 0x3c759658be0ad889U, 0xbd8e6f53bd8b101cU, 0x3d4e4bc33d0b0a37U,
  0x3e146e153e1acd05U, 0x3dcd78603dc0d5f6U, 0x3d30a9b73da66bb2U, 0x3e69312cbde4817aU,
  0x3e1d51a53ea037f5U, 0x3d2b94593d43c2d5U, 0x3e25007a3e15ec3eU, 0x3e9816a53e473510U,
  0x3e98b2f83bf23ff3U, 0x3cf374813e6ae858U, 0x3e6c37dc3dcc2339U, 0xbe1771363e7023faU,
  0x3e7040833dab50a7U, 0x3e01ff3c3d7274afU, 0x3df8e62cbe14ad24U, 0x3c900e2e3cecf37fU,
  0x3db62e6c3e4b19e8U, 0x3e1811e0bdac85a4U, 0x3caa764bbd2b3372U, 0x3e8c848bbddd925dU,
  0x3dd6f6233e10fd38U, 0xbe08fe0b3d64cdfeU, 0xbdcf151e3e75ec13U, 0x3d649a8b3e8fa506U,
  0xbc8f884bbd123512U, 0xbe19c363be3ee51fU, 0x3db0314ebd897c39U, 0xbbf6b5f93cc02248U,
  0xbb88c6523e089ba4U, 0x3d9b15d93c6b45e6U, 0xbd1deebbbd397d98U, 0xbd9fabd8bc426f6eU,
  0x3d75aa4f3da9bf2aU, 0xbdd7f8363c643eb6U, 0xbe0cac21bde3f25eU, 0x3cdaf920bd68d331U,
  0x3d82d81d3d915273U, 0x3e6045bdbd85a466U, 0x3dd53311bce096a9U, 0x3e12d6a5bdfc7bb2U,
  0x3da4d5de3e9ac1deU, 0x3df0fd6f3e02493fU, 0x3af3fce33e38a0eeU, 0x3ea7fd2a3e099aceU,
  0x3de39b333dc04932U, 0x3df3bc003d9e1c74U, 0x3ec51cb2bc8e55c9U, 0x3db254d63d40d96aU,
  0xbd616fed3d42678aU, 0x3d479e163d09b177U, 0xbd28ce843dcd7f13U, 0xbe295f19bd8597abU,
  0xbdf280f93df6034dU, 0x3d2a84f3bc39a206U, 0x3e186c193dd9cbd3U, 0x3dbb939a3e1104edU,
  0x3e9261b73dbb4c75U, 0xbd8d121f3e1005c4U, 0x3c8ddc453e66b0d2U, 0xbc7d001a3d6c9af8U,
  0xbe31318abde455e6U, 0x3c7556083ce747a9U, 0xbc8245e6bc4003c2U, 0xbdb32c25bd877f90U,
  0x3e0bde953dc5cdb3U, 0xbe25ef63bdbaae3fU, 0x3e08a3be3c90be57U, 0xbdf7e22e3d1912a4U,
  0x3d54105abda3ee2aU, 0x3e1939e13da26d18U, 0x3e0c4af83dfbaa32U, 0xbd56aeb8be34bb80U,
  0x3e9a81ffbd9088dbU, 0x3e7e15a8bc9497edU, 0x3e296255bdb11aeeU, 0x3ddf0c5ebd447410U,
  0x3e9133db3daa8f16U, 0x3e353a123d316631U, 0x3e3da8853e7c9fb7U, 0x3e58eb453e467b56U,
  0x3d8fce9a3eab2112U, 0x3daba99b3e66037dU, 0x3e7d1b9a3e11e449U, 0x3b8f661e3dd0dfceU,
  0x3e05225b3e304a3dU, 0x3bc50bb0bc10b53eU, 0x3cc48fcebde6aa78U, 0xbd14d43ebd85e9b8U,
  0xbe0911f13d6c50caU, 0x3e1c25f6be4a8d67U, 0x3e28a5c03dd4a830U, 0x3c328e793cdf7283U,
  0x3e94a2b5bdfee090U, 0xbde468f83d8bcdb4U, 0x3e1143233e8ec671U, 0xbd4583673e2a6639U,
  0xbc6dab64bc4d3857U, 0xbe09b3753cbb5d6dU, 0xbd45c418be2000b4U, 0x3d56460cbe279c42U,
  0xbdefd62f3b8e548bU, 0xbb3151a3bccb34fcU, 0x3e0d41903ca90d89U, 0x3db7473fbc6ae364U,
  0xbcf14dc6bd260500U, 0xbe1598bebcc2ac6eU, 0xbbf3afc63e161773U, 0xbe25290abd7fa7dfU,
  0xbe16546cbe03b5f5U, 0x3df1a1893d1b9e01U, 0xbdd4e30a3d31d6ddU, 0x3e035c1b3dd865d0U,
  0x3e0edfd7bdda9158U, 0x3c07ef3bbe202063U, 0x3de630fa3daea326U, 0x3d3d3ce5bdf2611dU,
  0x3dab8739bde57975U, 0x3dda494b3d3adad7U, 0xbe3092453d684a5bU, 0xbd0eb376bcd9a1c7U,
  0x3cd0ded6be02fb21U, 0x3dd957ca3e118b75U, 0x3d2c23a83c304235U, 0xbd6ef68dbe096ad0U,
  0x3d26866b3c3b9178U, 0x3e060eb8be0445ceU, 0xbcff96f03da8cc26U, 0x3ca0202ebd0f0959U,
  0x3dbe3e6abd3e7ed5U, 0xbca886153cd88f6aU, 0xbdb5fd36bd0c5cdeU, 0xbe1a86d6bd825531U,
  0x3d558180bd88e56cU, 0x3c974e693d96de26U, 0x3c976f71bcd868ceU, 0x3d2a8b97bd9c9114U,
  0xbe2a136fbd921ef8U, 0x3d9cd998be02d6ddU, 0x3cec68eebd8e6b2dU, 0x3d424861be3668bbU,
  0x3dd39f663c59f9f9U, 0x3d9e5d4e3d87e547U, 0xbd656a133d2af37cU, 0xbd640c51bd8a99f8U,
  0x3e00bfcf3c7e1646U, 0x3cbd709dbc469d9cU, 0x3dc35997bd1a054aU, 0xbd16f83c3d5e662dU,
  0x3d319b8d3daba702U, 0xbe1fe5053d02e918U, 0xbd9315013d24221cU, 0x3d57ab69be07d8cfU,
  0x3db8e8d73d35c06fU, 0xbde7f006bdcce90eU, 0x3dea14cabd94f3acU, 0xbdd804823dfc0b02U,
  0x3d8ebc383e10f68dU, 0xbcc576c93d7dfbbbU, 0x3e075774bdc65d06U, 0x3c44ac003d41beb8U,
  0x3d69d523bdbd30c2U, 0x3aa1cb35bd891269U, 0x3cefc97c3d7fa1b3U, 0x3dc62fc23cb8689eU,
  0x3df34ba23e08a0e7U, 0x3d81191e3c9ffecfU, 0x3d50de563da20e34U, 0x3e04da993c7b533bU,
  0x3dd49bfa3dc27b86U, 0xbc433665be25e996U, 0xbe1785bd3e1cec16U, 0xbdeac4f33df1f9eeU,
  0xbe2c581ebe07e342U, 0xbc3e7e00bdce7ee8U, 0xbe0374b13d951728U, 0xbdee959dbd2f70e8U,
  0x3dbc81febdeda0fcU, 0xbe21377fbccada32U, 0x3e027be43e0634f1U, 0x3d6a4687be2fb99bU,
  0xbe2e10f7bab4c84cU, 0xbdc101b4bdd28babU, 0x3d188417be1d63cfU, 0x3d27dac2be1d3d8dU,
  0xbe0a05a63c24421aU, 0xbe085f24bd7a67d2U, 0xbdb6c115bdb99180U, 0x3c9d5aa23da89d24U,
  0xbd83e8f7be07a482U, 0x3c1c3a59bddeab06U, 0x3c3c5b88bd35392cU, 0xbc8956923e03ee88U,
  0x3e12743abd1831caU, 0x3b967cf9bc0fd10bU, 0x3d3e2e263e0ea3d4U, 0x3cb4f7f33db92586U,
  0xbd7bd1ce3da46c54U, 0x3d9639f1be0f235dU, 0xbe19db493dc4f0b6U, 0xbe1975253dee8caaU,
  0xbd9cc75ebe04bd4eU, 0x3e0dd8f6be2510bfU, 0xbc6c98ffbe100ef9U, 0x3cc9f5aa3df0d3dfU,
  0x3df10632be057327U, 0xbdaacfb3bd666e7fU, 0x3d32f0d2bcbdbfe6U, 0x3e008964bd590f92U,
  0x3d7446f33de7e936U, 0xbda2c54fbbd97c0eU, 0x3cb7a3023dc93b08U, 0xbe18f7353c7a729aU,
  0x3dd7b42e3dda1dd5U, 0xbda9ce9e3dbb9117U, 0x3cc72c393ce88820U, 0x3d3fd9a3be1d6747U,
  0xbc318e5b3dd6f4f1U, 0xbe0504d1bd247b70U, 0x3df7f6d3bd83c768U, 0xbdbb5517bdb824dfU,
  0x3d46442fbe4c53ccU, 0x3ddae0303d6d9daaU, 0xbdf2d34d3cb92d64U, 0xbda8806dbe41042aU,
  0xbe29114c3cbe7c8fU, 0x3c81a973bdc231e6U, 0x3d5e6d5d3c50bd28U, 0x3e0c8e9cbe2b8dffU,
  0x3e15643abc2880d2U, 0x3da86b603df460f4U, 0x3e42fc5abcec0ec3U, 0x3dae1a4fbd6713edU,
  0x3e5d23c3bcc90326U, 0xbd86707e3e60a849U, 0xbca183843e435fe9U, 0x3dacd7fb3c192062U,
  0xbe02bf493e4c6a42U, 0xbdd898853d6c0f99U, 0x3e3fbf5cbd665c87U, 0x3dc5bf4e3c879927U,
  0x3d0316eabe1bbc1fU, 0xbe016eebbd3e0c15U, 0xbd95e7f53c444575U, 0xbce6db31bdabba97U,
  0x3c5922863d5735bdU, 0x3e20d5fb3e188a4eU, 0x3e040ce03dda5bc8U, 0xbddf4d75bc910aceU,
  0x3d2a158ebdb171b3U, 0x3ddbc659bd86f63eU, 0xbc88e3e6bdeeca52U, 0x3e11577d3dfb189dU,
  0xbe329b3dbdb60718U, 0xbe822fd2be467571U, 0x3dd358bd3de23878U, 0xbcbe1da43d3249e0U,
  0xbe24bf9c3a006fa8U, 0xbe0949c5bd2710a6U, 0xbe39e39cbd1e8b1eU, 0xbe59a95a3d2c2b90U,
  0xbc8781c8be5d0253U, 0xbe314e0dbd5dfb42U, 0xbe26aac1be3e9316U, 0xbda09a4fbdce9fe8U,
  0xbd8c672f3df2de6cU, 0x3d0ca27a3db4bdc0U, 0xbdd627ae3e5f4d47U, 0x3df8e9a23e3f3b3eU,
  0xbcc261b6bdcc93a8U, 0x3c24a7cc3d1f3ae1U, 0x3dd53e383e24c671U, 0x3a6086c03e3e96e3U,
  0xbd5bb3aabd06eb05U, 0xbd88d272bca9a2e3U, 0x3dd3c257bde36482U, 0x3e0c0372be26748dU,
  0x3dbcef493ddfd176U, 0x3d48d6083c0825adU, 0xbdaa11fd3dbc8776U, 0x3df315573e06f0d5U,
  0xbc7c941dbc2d7c9cU, 0xbd1757febdbc44ebU, 0xbd3bce403ddb5064U, 0xbcaf50583dcf3013U,
  0x3c0db101be088290U, 0xbdb288673cdc4279U, 0x3d65f4b23cae3570U, 0xbda4a77dbd031033U,
  0xbe3af721bcf018faU, 0xbe074de5bd36fa02U, 0x3d958d48be08c10eU, 0xbd1d72113d59aae2U,
  0xbd75b57ebe18048fU, 0x3d5bf215be1090c3U, 0xbdef6807be0d0b37U, 0xbe869cacbd697c1aU,
  0xbce592fbbe0b70e0U, 0x3d27ef7abdcfe25cU, 0xbe02732cbe02c52eU, 0x3d03419cbe6a0813U,
  0x3db661a0bc845021U, 0xbdbdbd7e3e1ab3d4U, 0x3d755a513e4dede5U, 0x3e0e4cbf3dc502edU,
  0x3d5f58ce3d389af4U, 0x3da4f6b93d3a146eU, 0x3ddf705c3d8ce3e0U, 0x3e2756f13dccab1cU,
  0xbe3290093dc3751cU, 0x3e58c55f3c8be372U, 0x3d285a02bd6def50U, 0x3dbfa46dbe16eed5U,
  0x3c8e11f43e118313U, 0xbe0fcc943e5826e5U, 0x3e46c1de3d69c121U, 0xbd9984873e081533U,
  0x3d5649103c196cfdU, 0x3e06742dbdae6ef9U, 0xbd32718cbd5c7fa1U, 0x3d4bd1f5bd964119U,
  0x3e67d2aabd9c89efU, 0xbd3744bc3db4adb5U, 0xbc14be01bd9bc46bU, 0x3db5fd9d3dd3ff77U,
  0x3cb50298bda3cbaaU, 0x3e711e853e28e97dU, 0x3daf78133eb0dd23U, 0x3e15957ebd070535U,
  0x3ec93b863eca577eU, 0x3e592d933f347cc7U, 0x3efd87643ec570c8U, 0x3e83f0f53e8d573aU,
  0x3ecf46a33eb3799dU, 0x3e921ef73e99541bU, 0x3eeb74d83e1c2ac2U, 0x3e8531753e63537aU,
  0x3d16bd11be1f866fU, 0xbe30c96abe1b28c3U, 0xbdcd83aabe54b920U, 0xbd5ee9fa3d0a57c1U,
  0xbda8e2373d665b42U, 0x3d395d4bbe4f39e6U, 0x3dd1bdb1bea465c0U, 0xbd8443dbbd5328b3U,
  0xbc2ff009be18bb3cU, 0xbe55526d3d71729cU, 0xbe5a05d13b58de39U, 0xbea680ea3c6fe610U,
  0xbcd55e04bdb60ca1U, 0xbe0241d0bd737dfeU, 0xbd9a2b863cfc8473U, 0x3d1f86d8bcd93a15U,
  0xbd7f54d03d0c792dU, 0xbc00d724bb9afbf7U, 0x3cbc6189bd0ed86eU, 0xbdb307cabdee265fU,
  0x3b93e1e03dfed4a8U, 0x3d1e787d3e240ec0U, 0x3c381ec23d45d8dcU, 0xbda331e63d834de4U,
  0xbc4a8a5cbe03509dU, 0x3e8a8bdb3ed1d38eU, 0x3d8743ae3e25af5aU, 0x3e38bc0abe1eca4eU,
  0x3f1144b23ebedd10U, 0x3d5a9cfb3ef538faU, 0x3ea4a1d83eaa097fU, 0x3e4213ee3e46ef2bU,
  0x3ebb0e1b3eb8de22U, 0x3e6d8ac53e24132dU, 0x3eb7dca7bd8ddf3aU, 0x3eae14173d8a4c07U,
  0xbd22cbbebb33fdf9U, 0xbcf3b466be67f642U, 0xbe8222e3bdb6618aU, 0xbe26df4abdc5c9abU,
  0x3d45dcdc3dcbbb4dU, 0xbe546041be6979f1U, 0xbdb6c161be22c1c0U, 0x3d1ba73bbe844b5aU,
  0x3c08544c3d25ec51U, 0xbe61d48dbdf2ef38U, 0x3cb9187abada4fcdU, 0xbe6292e1bc20494dU,
  0x3e5b63473d60353eU, 0xbdd783b1bd08b6a9U, 0x3cc8732fbd02fcd8U, 0x3df5ed2fbd8572daU,
  0xbc323af43c4cb13dU, 0x3d4291a53e53603aU, 0x3d2d104a3c8016e7U, 0xbe207935bdc2accaU,
  0xbc9b382ebd8d853eU, 0x3d708de7bc4dddc1U, 0x3e440bb8bbd30600U, 0x3d93032ebc85540aU,
  0x3e0d43483c8b6194U, 0xbdd6ff003dfa687cU, 0x3de3e8083e4b92afU, 0x3ed416973b9d1ccdU,
  0x3eb06c013e697163U, 0x3d980b8a3f0a95f7U, 0x3e87f5a73e8e7964U, 0x3eb0cdb03ebdadd7U,
  0x3e3775ec3efac7ebU, 0x3e8577493e6c5ce1U, 0x3e90f9a03d40b678U, 0x3ea386ec3ebbc326U,
  0xbe2524483d762ce9U, 0xbe1cef43bdead7a2U, 0xbe692319bddd3749U, 0xbe86969ebe83a3bcU,
  0xbdcd7789bdb02305U, 0xbd91b12d3d8e011cU, 0xbe51eca5be954582U, 0xbe0266b8be6c3df7U,
  0x3d958fefbe1df723U, 0xbe1bcf88bc721ef5U, 0x3d214d443e09c9e4U, 0xbe35a90e3db6c68dU,
  0x3d9d8ef13dff24c8U, 0x3d899c4d3db2e9e6U, 0x3c1428283c808d1aU, 0xbda1da833cc19b86U,
  0x3e7854003d3f1f8cU, 0xbc754142bc5e3d49U, 0x3cf412433dab548bU, 0x3d937b7e3e262da8U,
  0x3dc4e53e3cd7f540U, 0xbd7dd89dbdbee99cU, 0xbc2a4614bd347e6cU, 0x3d8ca608bd64d391U,
  0x3d999d68bd8dbb8eU, 0xbcabc786bdacdc5aU, 0x3dab99413da15508U, 0xbda4ab083dfacb0fU,
  0xba570b9fbe24b990U, 0xbda0c859bce07de0U, 0xbe340f39be13d7c5U, 0xbe112eae3d4e8715U,
  0x3d3c428abe139bf1U, 0xbe278e923c40c1b8U, 0x3dedb166be275f6fU, 0xbe193755bbf7a433U,
  0xbd3195d23df98b8cU, 0x3d0afe1dbe0aadf1U, 0x3d98a9f2bdb3054aU, 0x3db5b74a3d781adeU,
  0x3d99b1cbbe0e9caaU, 0xbe2171d3bd067b22U, 0xbe112bb2bce8109bU, 0xbdf116fdbd17df7dU,
  0x3d29cac73d54923bU, 0xbe2cdc8bbbb24f51U, 0xbdfd9cd3be0cf838U, 0x3dd27b60bdb9fd80U,
  0xbd972d5e3d8ba7b6U, 0xbdef11d6be040edcU, 0x3e27a1e33db9a5f8U, 0xbd98002b3dad2f22U,
  0x3d2c9ec3bd7aff9bU, 0x3da809dabd3cf711U, 0x3c22e334bd2e5fcfU, 0xbd03268c3dbd4357U,
  0xbbfcb410b9bf2319U, 0xbd934b533ce4af4dU, 0xbe0d7dd73daa434aU, 0xbe6622d8bc04d434U,
  0xbe10cd813d7808a1U, 0x3de2a38d3d8ce7bbU, 0xbdf7f36abe000537U, 0x3d3b746e3dda2f53U,
  0xbdf0d1873e208362U, 0xbdef92473da2b12aU, 0xbdcfcaa4be218a4dU, 0xbd02ca393d80b263U,
  0xbc034274be2af71bU, 0xbdf44a8f3e00f8a3U, 0xbd39da123df8dcc3U, 0xbe3bfe223d224d63U,
  0xbd5f2c58be42c097U, 0x3d850359be1400cdU, 0x3dea9e0ebdbda846U, 0xbc5a48b6be2fcf61U,
  0xbdcc26eabe34fe19U, 0x3d0ccf08be1e78a5U, 0x3e026cc5bd38d923U, 0xbdd370fabc35b5a5U,
  0x3d725418bc747b77U, 0xbd0f2091bce12431U, 0xbdfc255fbe0d31a5U, 0x3deed89b3dd7f12cU,
  0x3c9ad420bd93f4acU, 0x3d41a95a3e2df3ccU, 0xbca4c7473e283752U, 0x3d8af599bc9995f0U,
  0x3d5bbcbb3d8be1c0U, 0x3cc060383e148015U, 0x3d7291dcbcacf87dU, 0xbc67bf2bbdf73b29U,
  0xbe15e27c3e08d124U, 0x3df472693c17d710U, 0x3e09cf76bd074b48U, 0x3cf270c9bdd62eadU,
  0xbd9f130f3dc4ab72U, 0xbe05bd213df92983U, 0xbd2734b3bd93ac5bU, 0x3e07add13cd42f1fU,
  0x3cc3af2f3e13a6bcU, 0x3dfed5df3dda2c76U, 0x3d0814a1bc134c96U, 0xbb4e2780bd89e1e9U,
  0xbdf4ab073db9f987U, 0xbdb0f2afbdd6b056U, 0xbd5e1e48be119156U, 0x3c7124b53e0b37efU,
  0xbd890456be0c3c58U, 0xbdaedc2dbd87b387U, 0x3d92bc313d9ff7ccU, 0xbadd2a913d8bbd41U,
  0xbd238984bd80cda2U, 0x3dfb24bebd92682fU, 0xbda559b7bd24c0f1U, 0xbe1482ed3d2e4d75U,
  0xbd3f1eca3d1f5643U, 0xbdbf384dbded5860U, 0x3b1dd1053d829379U, 0x3cc03d693dd40726U,
  0x3c4d3a003e1cc805U, 0xbe3d0d7f3d716181U, 0x3e1e9ca7bdeda258U, 0xbdee3a0bbd016294U,
  0xbdb2a1a83dac3fc3U, 0xbe0025b9bdebf3d7U, 0x3d87830ebd983db5U, 0xbdd13508be152eb4U,
  0xbdb0fbb7be07e848U, 0xbce2d14e3db1ea18U, 0x3dfee77f3dab2604U, 0xbe6d47f9be219343U,
  0x3dcb30aa3df9d800U, 0x3eaabdc8bd1be9f3U, 0xbe0ae1fc3dfa198fU, 0xbcf10d013db0e26eU,
  0x3d5fb0f43e4250bcU, 0xbdbd0ea7be0cb72aU, 0x3e47ce40bb0c164bU, 0x3e797e35be13824aU,
  0x3d293db7bdbe50e1U, 0x3dfc1db73e5b41b4U, 0x3e18a0703db57dbdU, 0xbe6dba203ec7a080U,
  0xbc59cee5bd7d723fU, 0xbd1406713d950402U, 0xbd9da36bbdca49a8U, 0xbe48899bbdd63e07U,
  0xbce7dbeebcaea03eU, 0x3c0a2f99be271a23U, 0xbd8d128abe4fbeb6U, 0x3d40b77ebb4e9285U,
  0x3d161328be4a80b3U, 0xbda692b83b5342e0U, 0xbd9323a63e25127eU, 0xbb61416b3d409897U,
  0x3d8cc9963e22bbe1U, 0x3de9e3e13d6b9dcdU, 0x3d85067c3da99949U, 0xbd635be23cf83c5aU,
  0xbdaa1b8c3d7ace88U, 0x3e1b45353d434929U, 0x3b6074b63d55603aU, 0xbdcd839e3dd61e85U,
  0x3d5d71de3e06376cU, 0xbdbeeb473d9e16b4U, 0xbe035cb3bd9da8daU, 0xbd01cd023d225e5fU,
  0x3e201a8f3e2c2c3bU, 0x3dfb7ceabd80ff88U, 0x3dae37a8be2a487fU, 0xbe0ceec83dd966abU,
  0x3dfdd61c3e0d321cU, 0x3e7a45b1be78965dU, 0xbd6f35c23ca3748dU, 0x3e8ebe9c3e32f08dU,
  0x3e5305413db96e15U, 0x3dd319c63da17a4aU, 0xbc1013e33e219136U, 0xbd84bfe63e90d2beU,
  0xbdaa03c4bd7e9777U, 0xbca9a650be979f33U, 0xbe24061abbb94782U, 0xbe184a673c0eb473U,
  0xbdb880313df188c9U, 0xbda42217bd3a2578U, 0xbe4bbd06be29da61U, 0x3e0bcdf73d279d48U,
  0x3dfaea00be166925U, 0x3d06c836be592840U, 0xbdaa6bf23df1395dU, 0xbdfc4ed53e5678c9U,
  0x3dd3c8f63da672f7U, 0x3bf067b13dd029cfU, 0xbbc42e97bc01d255U, 0xbdf77488bd5db6c9U,
  0xbce1bfeabd1c52f6U, 0xbd19615abda97566U, 0xbe077977bd1b242cU, 0x3d6780283bccfb1bU,
  0x3cf841fdbb1b7a68U, 0x3d11b9a43e008780U, 0x3d852f2fbdf3492aU, 0xbd2cd160bc536b62U,
  0x3e0519f23e3bf98aU, 0x3eb28603bde04708U, 0x3e06af4abe4b2eb9U, 0xbe01ab893ca4482cU,
  0x3d80fe2d3ddc7d79U, 0x3e8bb95bbe6fc630U, 0x3da8c2f63e1c9030U, 0x3eee362f3decba21U,
  0x3da220513b6ba56dU, 0xbc5188a13e26298fU, 0x3e5461113e616da0U, 0xbe4d29403e8c76afU,
  0xbd9eeb6fbd1f044aU, 0xbe24ca08be1cf80fU, 0xbdf1b3a3bde6631eU, 0xbb9fa65dbd8d0406U,
  0x3cf442b53df1756bU, 0xbd9773143d3f0c9eU, 0xbe06feaebbb3efd6U, 0xbd6c849ebcbe0c94U,
  0x3e1f2ce4bcaaf5a3U, 0xbdd9d7203e4b4282U, 0xbde25b1b3e33b992U, 0xbe3db2cebac50af0U,
  0x3e2d52943df571f9U, 0xba25811fbe262a97U, 0xbda3749c3cde001fU, 0x3d38101e3e177bf5U,
  0xbd9c31933dc36058U, 0x3dc90ca3bd2912bfU, 0x3ddf3a9d3d074986U, 0x3d05c6e9bcf3d2eeU,
  0x3d77d830bda23570U, 0x3d09781c3c025703U, 0x3d52f359be0d616aU, 0x3c9fd5633df3471dU,
  0xbe22b148bdd6a7a8U, 0x3d1681bfbd6beeefU, 0x3df4ef133e4cbdfbU, 0x3e0608603dfa1654U,
  0x3dd79ecabdacb32dU, 0x3db7fabcbd926617U, 0xbe1bbaeebd04fd35U, 0xbe015d313d12f6f8U,
  0xbdbcbad2bd7771e9U, 0x3cc695673d029777U, 0xbe16cddc3d886ea1U, 0xbe29deafbe52de09U,
  0xbca1889f3dd7dc7dU, 0x3d0509513deb3b9fU, 0x3e2dfe413ec116b8U, 0x3ebdb4883df687acU,
  0x3e8bc33f3dee8a66U, 0x3ded0cee3d7c1c86U, 0x3e1d01e23e569838U, 0x3d082bd43e2d06cfU,
  0x3db88e763e57ebd9U, 0x3d6bc16abdb7fe89U, 0xbb93efca3b94be71U, 0x3ee5bab2be335016U,
  0xbe0ff4213e36de2dU, 0x3d08e9723d680c4eU, 0x3dec121ebce2d009U, 0x3df43f2cbc0f620aU,
  0xbbf5f29c3ae434feU, 0x3e2093973b59a1bcU, 0x3b49786abd57dcb2U, 0x3da257683d7fc2e7U,
  0x3c8adb643ddc8b37U, 0xbdee9731bd8f2ee3U, 0xbe0ffadabe0ace6bU, 0x3d7b40cebd63a8d9U,
  0xbd8eacfb3c2eb0d9U, 0xbdcbf6c3be1ec739U, 0x3e1d9b903e669122U, 0x3d4bbac73ca946b6U,
  0xbd05b27bbd3c1417U, 0x3d092c5c3e0a82ccU, 0xbe230366be2c2401U, 0xbe4ad792bd9d3408U,
  0xbd43087b3c33a9d4U, 0xbdb67804be2ed996U, 0x3d8c44bbbdd70287U, 0xbd1a7a7bbd36c9a1U,
  0xbc9b132c3e868713U, 0x3de2ceeb3ddf1344U, 0xbd1a4ea73eaf431aU, 0x3e6a25ad3e9c64fcU,
  0x3e024721be091e40U, 0x3e7adf323dcce1baU, 0x3e1004d63dee472dU, 0xbd83fc7b3de93af3U,
  0x3ce412f23e7ba70dU, 0x3db23de43dbfacf8U, 0xbcc76e713c870d33U, 0x3eb26c7ebd54cbb3U,
  0xbd9353f23e6e9ac5U, 0xbe14d13c3d1c06a8U, 0x3d6aa1a43e1de665U, 0xbd8b861f3dc90a0cU,
  0xbe3af8a0bd7b62d9U, 0x3dc3bb493c8d8c29U, 0xbdb89fc53d8b8a0eU, 0xbdd12a98bde90f72U,
  0x3e8207e23d8fef51U, 0xbbb328b0bc90826aU, 0x3b9733233d88da54U, 0x3da4b1e6be105452U,
  0x3d9abe53bc0fc072U, 0xbdde647abb41ac38U, 0xbe3d7fe1be0919feU, 0x3d4989963d04f8d2U,
  0x3d4edb2d3dacd9f7U, 0xbdbc1f67be337c5dU, 0xbcac3caabdbcd6ffU, 0xbddf148dbc28ac4fU,
  0xba2a78e1bd3a07f9U, 0x3dda842ebe1becfbU, 0xbd1802ef3dd4705cU, 0x3e1242d0bcb82a78U,
  0xbacc08febdb1482aU, 0x3e1001413a9b24e0U, 0x3c6190b63de2cabfU, 0x3e976cd13e7b8ec9U,
  0x3e0f77bf3dafb5eaU, 0x3e09d4ae3df2ec2fU, 0x3e2dca043e048932U, 0xbcef7c873dfb9137U,
  0xbdcfbd353e35e9a9U, 0x3cadd0f13d144adfU, 0x3dcb2206bdb258f9U, 0x3e27edcc3daa7b6dU,
  0xbdd315e93dd13e97U, 0xbca9acf33d859702U, 0xbe14b57c3b72309eU, 0x3d0c0e91bb9536baU,
  0x3d5a95c43dbe9a63U, 0x3daabbbd3d01f22bU, 0x3df22d813dc460a8U, 0xbccac0503d86ae2cU,
  0xbc95c7883dc60b2fU, 0x3dee23643d9bdf57U, 0x3e18d89d3dd7d716U, 0xbde84f8abc94d726U,
  0xbcfc6278bd1873c5U, 0x3cb66543bec8a229U, 0xbe802030bea23846U, 0xbe1983b4be151699U,
  0xbf0ea317bece9a71U, 0xbe10fefabedfbbeeU, 0xbed46606bebaed87U, 0xbe269199bea7a9c3U,
  0xbe90ca07bee625daU, 0xbea2ee82be04aeb6U, 0xbea61838be2042ddU, 0xbe9a2b73be353147U,
  0x3dd459d43e17315bU, 0x3e8345913d67ce81U, 0x3eafb3093e809e8eU, 0x3e1d35a23e9d8924U,
  0x3d67a9c5bdbe30f0U, 0x3df525803e8ad4b3U, 0xbcf21db43e8d7d97U, 0x3e4704673dad96d3U,
  0xbd9c095c3d6ff54bU, 0x3d5046a83d44b10cU, 0x3e8e2a453d3f2c1aU, 0x3ec7544c3d02ca0eU,
  0xbcf88d7ebc068479U, 0x3d098c76bdebe8f7U, 0x3c7c32a93e1079e0U, 0x3c235f033db5146aU,
  0xbc31c5a8bdb98907U, 0x3dbb7d5a3bb1dc6aU, 0x3d99c1f13d1d87dcU, 0x3e29aafdbd85de01U,
  0xbdfdd82a3db39bc2U, 0x3cd2a3b9be0d95b7U, 0xbdec9abf3de67a9aU, 0x3de392c53df38f78U,
  0xbda8a3acbc9ea661U, 0xbe9b7ecfbd58b9fbU, 0xbd40ece6bdf0cfe3U, 0xbe538a8bbce18d3eU,
  0xbedaca10beb905f7U, 0xbda3dddabf08734bU, 0xbe87b524be848ae3U, 0x3d581f86bd9be724U,
  0xbe7ce1c1be52a40eU, 0xbe2d66163b5d662dU, 0xbdfac1a93c987ef3U, 0xbeb395ffbe96a542U,
  0xbdf23ba83e1fa4faU, 0xbd1da6163e2f8aa3U, 0x3e5df29d3eb9279aU, 0x3ead81ba3ea97b4bU,
  0x3e3e77513d3abec5U, 0x3d7e14d73d69b4c8U, 0xbcc5df9a3d48f5e6U, 0x3e1bc2013d4f6b4aU,
  0xbd8fa5173e5fc538U, 0x3e59acdb3e6e17e2U, 0x3e26c370be2bb124U, 0x3eb1f8e43d2573fcU,
  0x3d46caf63c4d30f7U, 0x3ddd4258bd59752aU, 0xbd75efe1bdb38a92U, 0xbd85c5a63e3234caU,
  0x3dd4c463bded91efU, 0xbd952b43bce9cb78U, 0xbdab8a11be380f2fU, 0x3d9103003e249e61U,
  0xbe2ffa223cccaef0U, 0xbb9ab7ac3ddd730fU, 0x3d2be8f3b9739400U, 0x3c50e47e3d61dccfU,
  0xbdbe79993c259fb4U, 0xbc652d45be8e99bfU, 0xbe94bdb8be699b02U, 0xbe823424bd1d9811U,
  0xbe86355abeb2ce65U, 0xbea0109ebe95d9acU, 0xbec689a8be96698fU, 0xbe4d6081bdfc6878U,
  0xbe969268bf08cbe2U, 0xbec0f8f8be36cdcdU, 0xbe28fa70bd29f847U, 0xbecc2365be6b4ae7U,
  0x3e69324bbd045537U, 0x3e1341743e218f50U, 0x3e8672303da4e6c4U, 0x3e6ca13c3e40f11fU,
  0x3e5c9d6e3cc4450aU, 0x3db2d3e23e774319U, 0x3d7eb9273e5cbf15U, 0x3e2911b13e779bccU,
  0xbddba3d63ea89f91U, 0x3e919bb53dd50e8eU, 0x3de5a2953d82b498U, 0x3e8df018bded3b49U,
  0x3d95c2e33e18847dU, 0x3d5a6f943e06e0a7U, 0xbd16d969bd7eca5eU, 0x3cdb246a3c861fb6U,
  0xbe1976133dcbe70bU, 0xbd8cccacbdc5ecb6U, 0xbdf35f173dc2b741U, 0xbe15997fbe02035bU,
  0x3df114ddbdd8de62U, 0x3cd7fc13bd513ce2U, 0x3ddb5385be0e7aadU, 0xbd14549bbd9287c1U,
  0x3d66b479bda55731U, 0x3de45fc0be516945U, 0xbd988c56be390609U, 0xbe46e3283d235c28U,
  0xbeaaf31ebe0cc2baU, 0x3b891d3abec43211U, 0xbe8ed419be400d7cU, 0x3db5f4b7be9555edU,
  0x3d90a0abbe9e5637U, 0xbe5a21b73d159ba7U, 0xbe90b7173d9ce815U, 0xbe5441e8bbd6abd1U,
  0x3d0c4cb63da8997bU, 0xbdcfd7a9bdb0d3ecU, 0xbcd674fabd8a268bU, 0xbdb73001be304c06U,
  0xbd4cb91fbde541b0U, 0xbe097accbe48881dU, 0xbe5176e7be3f8598U, 0xbd39b556be0f9beaU,
  0xbe2c168ebe47c7bfU, 0xbe648114be487fe5U, 0xbcad239d3d88189bU, 0xbdf761e1be1bcd16U,
  0x3d80e48d3dfd5376U, 0x3d4ebf2ebddc16b1U, 0xbdeceebc3bda321eU, 0xbe0f157abdbc24ebU,
  0x3d0367733da0a004U, 0xbd694f6ebd4c0ebcU, 0x3e2b66ca3dbdf990U, 0x3de3b703bdfd7312U,
  0x3cd86276bd9289dfU, 0xbe0cb916bcf2ce30U, 0x3d8ec2453d84bc56U, 0xbd801d473df8f42bU,
  0x3c9b5f05bc24d31bU, 0xbd20b256be6c6b1aU, 0xbe08cb76bde4deddU, 0xbdd2a57dbd6fce85U,
  0xbdffd9dcbe572792U, 0xbdc63f30beb7d7dcU, 0xbe04f5e0be400b06U, 0xbe2333e1be676e0fU,
  0x3c1a0b59be90f0a3U, 0xbe0f20b3ba98c63aU, 0xbdcf07833e0239c8U, 0xbea033013d4037dcU,
  0xbe1628003d77a6e4U, 0xbbcce38cbe2a73aaU, 0xbd91082abcbd0f44U, 0xbd975f45bd41aa09U,
  0xbd016b6cbce2e3b2U, 0xbe44ad64be020e78U, 0xbda0c9f7bd174e83U, 0xbe3deaa1be5d8620U,
  0xbb93da11bc315e05U, 0x3d461a28bdaed131U, 0xbaa2021cbdc976e8U, 0x3bce4adcbde00700U,
  0x3e139d1b3e8833e1U, 0x3d71b813bdacc0f7U, 0x3d2a021ebde8ddc1U, 0xbd05d0e6bdb34805U,
  0x3d80a886bde715eeU, 0x3cfe7fef3d702ed4U, 0xbd9fa616be2786b5U, 0x3dccba013dab4c78U,
  0x3c796e6d3d22e037U, 0x3de73f5ebbd6b50eU, 0xbdfe89983d097690U, 0x3c0cd9993dcc0ab6U,
  0xbe35f0043dd6d8b0U, 0x3cc54757bdce5456U, 0xbe3f735bbe83cffaU, 0xbecf13c6baa7b46fU,
  0xbd9fd32b3c5b1327U, 0x3d334972be84675dU, 0xbdc3eb23bcf00b69U, 0xbe06e1d3bd685e70U,
  0xbe6f58fdbeaf587fU, 0xbe270e99bda163a0U, 0xbdb31f18bc817214U, 0xbf0413bd3d8b2bedU,
  0xbdec6ec1bcadd510U, 0xbdf29e56bd36ef07U, 0x3e105fc4be19dd3bU, 0xbe0c13b63cfa240fU,
  0xbd2d94bdbd15e5f5U, 0xbcf344bebe840a87U, 0xbe5c03d1bdba62acU, 0xbd4a75c73b001d6cU,
  0x3b4d8f38be42ffbdU, 0x3d47bc50be2602d9U, 0x3ccfe1833dacbd56U, 0x3d3e80cf3daefe37U,
  0x3daf27b0bc1d3c3cU, 0x3d8c28243dbbc94bU, 0x3d2056d63d843dadU, 0x3db5348dbc122602U,
  0xbdf8a277bd05965dU, 0x3cb9ecd2be5b72cfU, 0xbdaa7b8a3cb63b24U, 0xbe2309f7bd87b0dcU,
  0x3d49776dbe3630f7U, 0x3c9807ee3d8f037bU, 0x3dabae5abd7a8032U, 0xbdab91b53b63900dU,
  0x3e0bd28e3e067eceU, 0xbdd33a663e19b7deU, 0x3de462b6be16495fU, 0x3df9304cbc9ef913U,
  0xbd38bfa93df05830U, 0xbe0d3518bc5db85fU, 0x3cd0ef6ebdf837c2U, 0xbd8885f5be2346dcU,
  0xbdc893f6be006bdeU, 0xbd8e13cb3da872aaU, 0x3d0239b53d0f79c3U, 0xbd15c5edbe07b5c9U,
  0x3d68ae64bd354ccdU, 0x3e2250dbbe2316bcU, 0xbe206eb9bd2af553U, 0xbc94efd13c55cab5U,
  0xbe3224203e134f79U, 0xbc860cbfbe3ae234U, 0xbd8614a0bde1708bU, 0xbb9f3a41bc7b26a6U,
  0x3c71a1ec3da3aab3U, 0xbda00c873b1048c1U, 0xbc43fd37be491818U, 0xbddef0babd065174U,
  0x3de488cebd179d24U, 0x3dd37538bdd49f0eU, 0x3d99b85a3ce49d01U, 0xbd8c6f5fbd0c1570U,
  0x3da7c353be0db111U, 0xbd5408a03dff693fU, 0xbdefb42f3d8cdcceU, 0xbde44e783c2735abU,
  0xbc5653303d8a07a5U, 0xbe0ef41abdd4b193U, 0xbe42dea43d91e92aU, 0xbe47f5c5bdb356d2U,
  0xbdef866d3dea0ee8U, 0x3d1ed1d8bddbca98U, 0x3e084134be25cf58U, 0xbd9327db3df2629cU,
  0xbe60fb323e020914U, 0x3d416c72be43794eU, 0xbe144f04be0f9cdfU, 0x3e1734e4bde86868U,
  0x3b35b8c6bdbbd379U, 0x3ce89c9b3c31d76dU, 0xbc3b0d7fbd74c4aeU, 0xbd45ccce3d7632b8U,
  0xbe0b868fbe2c9ed8U, 0x3c80f0f5bd5e56baU, 0xbde656a1bd79660dU, 0xbe2e7c7cbdfdf578U,
  0xbddf6fdebcc61470U, 0x3c8e87ac3d4f3552U, 0xbdd378a9bcadaf66U, 0xbe10e8de3dc6a106U,
  0xbd0bb068be367614U, 0xbe4a7736be48d9dcU, 0xbd2e2a713d3c07ddU, 0xbd6c7499bd6aad52U,
  0xbde3eb08bddae2f8U, 0x3e040cdabc892c8aU, 0xbd737aaf3bfb1162U, 0xbdfd1a37bcf86e68U,
  0xbb913496be17e09eU, 0xbd9a716fbe06fc20U, 0xbd12fcf23d851354U, 0xbe01cd873c3127c9U,
  0xbdcfe6d2bd7f0cd9U, 0xba99c5193d85f61aU, 0xbcb4efb7bd99bb91U, 0xbd06b18d3d4f1b5dU,
  0xbdb1ea64bd001fabU, 0xbd9f9a39bd1d04edU, 0x3cf1bbf13d4ef59bU, 0x3dbd932ebdcff3b8U,
  0xbd0df38bbd0800e5U, 0xbda0a0ef3dbadeecU, 0x3dfa3cd53e175eb8U, 0x3bb48bc43d92285bU,
  0xbdde15bd3b68939bU, 0x3c5462b1be3b944aU, 0xbdeb1584be24f168U, 0x3dc5ab35be1d1a1eU,
  0xbe004283bd173058U, 0x3d8ec7353d016844U, 0x3d8badd0be0422e2U, 0x3df785673e12927eU,
  0xbd910814be31ddadU, 0x3dfe4facbd4b48b8U, 0xbe1d46b53db2473cU, 0x3d984e84be17aca9U,
  0xbe1680cbbe159e9cU, 0x3e0600173ce675c6U, 0xbdf2918bbe1f7a18U, 0xbc49b0663d03fcf2U,
  0x3d94e0aa3df5feaaU, 0xbc7b6200be3b6425U, 0x3da15a6a3ddb9efcU, 0xbbc46fb93b06bec0U,
  0xbdda6bc8be3ac9d7U, 0x3d719b60be095337U, 0xbbdf20c0be1cb86eU, 0xbdedf68abde4f45aU,
  0x3e0f15633d725c00U, 0xbe1577b5bbcd6299U, 0xbe27d7f33d98b486U, 0xbe353f673c028226U,
  0xbd94b8963d0462a2U, 0xbc5045afbd715277U, 0xbe2fd8efbc8c75f5U, 0xbdf345d1be069e6aU,
  0xbe43927dbe300b28U, 0xbe21aa9dbd3766bfU, 0xbdd918a3bdae3d00U, 0x3b95bce9be70dfc8U,
  0x3d1403aabd9ce9f5U, 0xbcbdcdf4be6686c0U, 0xbe7d6bb53caad25cU, 0x3a46a93b3db26827U,
  0xbdfa4efcbe329ca2U, 0xbe1d6cc9bd61236bU, 0x3db68fe73c4e0a0fU, 0x3d99ef83bddcffb5U,
  0xbd8cf0f63d667ccfU, 0xbc237c0dbe41926bU, 0x3c03f772bcb07b44U, 0xbe50da6dbd048122U,
  0xbdd4dcb9bde53d82U, 0xbdd41c6ebd5f7f8dU, 0xbd92ba643d63c527U, 0xbe5fed21be4bdc03U,
  0x3d06bc3c3e4f2710U, 0x3d39f84d3d9ec280U, 0xbe05c0893cb77fa7U, 0x3d55bdd73e1002deU,
  0xbd61ad983df0ee2cU, 0x3d31f81fbbec5afeU, 0xbdfe20d73d803fe8U, 0x3e089f0e3b0688efU,
  0xbd60ed43bd509b5eU, 0xbdb5dcd63e12b249U, 0xbddf93ed3c84c658U, 0x3c3c74433e540885U,
  0x3d718378bda17312U, 0x3c5fadc2be43e7acU, 0xbd0ada93be52e158U, 0xbd34dcfcbdd0be78U,
  0xbd94d3ee3d3e53aeU, 0xbe295664bea385d7U, 0xbd632055bd8110c3U, 0x3d5ccccabca353f9U,
  0xbd22e1aa3c32eaa8U, 0xbd5ff18cba396d61U, 0xbdad9e153d845992U, 0x3d8be5253d2e77b1U,
  0xbbb4c521bdfdf3e3U, 0xbd611855bc6ca89eU, 0x3d5857c93d58f55bU, 0xbd3176ae3dfc1591U,
  0xbda23b75be41faa0U, 0xbd7bc9adbde933bcU, 0x3c69ab3dbd8d94b8U, 0xbdbf44c13d6a08feU,
  0xbe5c72c2bab4c456U, 0xbe1a0aeebe03c40dU, 0xbe40d54a3d7012c6U, 0x3dac6199be0f5fddU,
  0xbd0835b43de29113U, 0x3d45df353cadf89cU, 0xbac321813d678260U, 0xbd863f99bcbdb786U,
  0xbccd776dbc848382U, 0x3e380067bd80f894U, 0x3e18b52a3d84a0a5U, 0xbd026a663cae30ebU,
  0xbd56fc9b3d9def33U, 0xbdada84cbcef0966U, 0xbd099d833d49eaa4U, 0x3db95e1c3d8b8f2dU,
  0x3d55b9f53db9b713U, 0x3bb9295abe28328bU, 0xbdd7cb9cbb8ebb7bU, 0xbe26ba223e15eb15U,
  0xbe48635ebce4ed9cU, 0xbd83bb07be6d174fU, 0xbda5ea84bdf549f9U, 0xbe6282a5bdecf7e3U,
  0xbe43917bbd85ff9eU, 0xbe8250ddbde8b4d1U, 0xbe05534f3e2eefe1U, 0xbde258bb3d5697d9U,
  0x3bdf1babbdfcb3caU, 0xbd3e66cdbe059a2bU, 0xbe2112ff3d1b4d82U, 0x3db8ced7bcdcd8f2U,
  0xbe01a323bdef33dbU, 0x3c0f44f7bdf354ceU, 0x3c3f541abd8964d4U, 0xbd4b03573dca8e30U,
  0xbd17f877bde2a68bU, 0x3d5bb273bcf1bde5U, 0x3cc4827bbdb1c931U, 0xbd913347bd71bb29U,
  0x3de20b703dfca575U, 0x3d8bf4f9bdaf66c8U, 0x3e094754bdcc6afdU, 0x3dd017d53dd7897bU,
  0xbccc46073da54736U, 0xbde7ad49bc6fa351U, 0xbd19414ebd3aad44U, 0x3db841993dd813f5U,
  0x3d5967f73df500c2U, 0x3de29e8ebcfd6cc7U, 0x3d84d3673c85ad40U, 0xbcf0b22d3d88a687U,
  0x3e1173663e393009U, 0x3d2488ac3e0cb131U, 0x3d1a3bdf3d159301U, 0xbd9378ef3d8e6124U,
  0xbd2e7e823e3fa0aaU, 0x3e2646fd3de5a2a4U, 0x3df8b8883d33fa09U, 0x3e1580723db0aa09U,
  0x3d0954443debd447U, 0x3e880f513e806d9cU, 0x3c54be7e3db7878aU, 0xbde922963e31304fU,
  0x3d0ca38a3d5d2ea7U, 0xbd4aae01bdb71bd6U, 0xbd91a259bd419849U, 0xbde3d9e53d17cfc7U,
  0x3d2b8f413df4b859U, 0x3d06f0f8be41f0e0U, 0x3e0bfaf53daf8a80U, 0x3d5516453db16a57U,
  0x3d7df92c3d8b6797U, 0xbdbde2c6bd68e32aU, 0x3d8bdd033d16a081U, 0xbd761f873d8e3c4fU,
  0x3e1167c73ca2e04fU, 0xbd86554f3d077b22U, 0xbda24237be31088eU, 0xbc05c2fb3d61de5aU,
  0x3da332f23da1157bU, 0x3c71f7513b9df5c1U, 0xbdb2098fbdacd053U, 0xbe01f7543d75943dU,
  0x3da9400c3ca934f2U, 0xbca6859e3dd565f8U, 0x3d7ea32d3c8538e0U, 0xbd038de7bd3d4d41U,
  0x3e49c454bccc1780U, 0xbbcc82553e334b7cU, 0xbd0824ecbe175994U, 0x3de692d7be48435eU,
  0x3e83954e3e8aab43U, 0xbc4133ce3d1a7d10U, 0x3e55c0383d94d71fU, 0x3d0de1183e19c8d3U,
  0x3e2422c63dfdd5eaU, 0x3d00c5163e2eb1c1U, 0x3e5476943c8ba04eU, 0x3d5719a4bd81dc00U,
  0xbd1b2e3abdd0b392U, 0xbd1dddaabe6a0640U, 0xbe30e2d3bdc45a5eU, 0xbdb5c45abe04b2a5U,
  0x3dbcfd51bc4b6066U, 0x3b2711a33c2fde64U, 0xbdfb1e233ddcceadU, 0x3dd022f6be0446c1U,
  0xbd6d7b0dbd9ba3a4U, 0xbdab32903d8887d2U, 0x3e1b840d3c81291bU, 0xbe4196a23dfb56d4U,
  0x3e603638bc6b3378U, 0x3de8533c3ddf11c4U, 0xbd72dbcfbd9fdcffU, 0x3e17bed1bb5a8751U,
  0x3dc54ab2bd77a614U, 0xbd76eb493bce4071U, 0x3da4b5753dcc77dbU, 0x3dae25023d4d6314U,
  0x3d002923bc9838a4U, 0x3dbf4762bd4d0de2U, 0x3dc6eb4039c94600U, 0x3e24b4eabdc0eb36U,
  0x3e2d85b7bd90e401U, 0x3e19e6c1bccc69c3U, 0x3bfb2c32be051b89U, 0x3e482d81bdef5a2aU,
  0xbd4ce33d3d745cbaU, 0x3e2473b63e08bac9U, 0xbcefec583ddfbc1bU, 0x3e6314fc3e6d0d48U,
  0xbbbb47f13e0bf26bU, 0x3dd81bfe3e11bf0dU, 0x3e2e9a3d3e0b5cfbU, 0x3dc0a4603e6a4e41U,
  0xbd47140f3cc2bdc5U, 0x3bf42d33bdbc39b6U, 0xbe0914c3bda830f0U, 0xbe19bb1bbd5877d2U,
  0x3e0d1dc43d3724eaU, 0x3dd25d91be1046bdU, 0xbdc94794bd9828e3U, 0xbd72be3ebe08224cU,
  0x3e00c9f3bdaf6892U, 0xbd96f42e3cc04c45U, 0x3deb2cf03d9fa122U, 0xbdf6f15b3e21c9d8U,
  0x3e24af3cbe2f16ebU, 0xbe2a5be9bd1b0ed5U, 0xbd9adc5d3d6e397eU, 0x3da32ec13d9a01caU,
  0xbd9bca4e3d13ccfeU, 0x3dbf1ab6bdd5989dU, 0x3de8eb1a3d195c1cU, 0xbd83590abcff209bU,
  0x3dec85683c9c7054U, 0x3c2cda663d3c2a0aU, 0xbd97d763bdfa378aU, 0x3d9ab3073d9fa2faU,
  0xbc9d4c26bd9a4980U, 0xbde2b978bccd1598U, 0x3cde9ed7bd034a33U, 0x3d8a1d34bd18b665U,
  0xbcbafac33c62e4f2U, 0xbc48150e3db050e6U, 0xbd79c538bed94c05U, 0xbf0e3cccbee75d14U,
  0x3efe65f8be9705fcU, 0x3e6ef494bed03f18U, 0xbedacc083f1a8ea8U, 0xbf42885d3ed2af05U,
  0x3e3cf7b83ef109ccU, 0x3e1d14f13f50d322U, 0xbf12f68bbe8f3efaU, 0x3ec1a4313edd2c13U,
  0xbe47f03cbf428fb6U, 0xbf2f6dd4beadce01U, 0x3f029980bea6b877U, 0x3f08eed93e51d435U,
  0x3ecc4be63d89d705U, 0xbf14496fbdf8dac7U, 0x3ea66127bf1bf535U, 0xbe63f4a93e8e6171U,
  0x3d9177fd3f0fb47fU, 0x3f1267eebee48b37U, 0x3f0358e7be023839U, 0xbe229adb3ea5741aU,
  0x3de752e1bd8e2ac8U, 0x3e009c953d94ce6cU, 0xbe146a2d3f68621cU, 0xbf67b4c8bdf52783U,
};



AI_API_DECLARE_BEGIN

/*!
 * @brief Get network weights array pointer as a handle ptr.
 * @ingroup network_data
 * @return a ai_handle pointer to the weights array
 */
AI_DEPRECATED
AI_API_ENTRY
ai_handle ai_network_data_weights_get(void)
{
  static const ai_u8* const s_network_weights_map[1 + 2] = {
    AI_PTR(AI_MAGIC_MARKER),
    AI_PTR(s_network_weights_array_u64),
    AI_PTR(AI_MAGIC_MARKER)
  };

  return AI_HANDLE_PTR(s_network_weights_map);

}


/*!
 * @brief Get network params configuration data structure.
 * @ingroup network_data
 * @return true if a valid configuration is present, false otherwise
 */
AI_API_ENTRY
ai_bool ai_network_data_params_get(ai_handle network, ai_network_params* params)
{
  if (!(network && params)) return false;
  
  static ai_buffer s_network_data_map_activations[AI_NETWORK_DATA_ACTIVATIONS_COUNT] = {
    AI_BUFFER_OBJ_INIT(AI_BUFFER_FORMAT_U8, 1, 1, AI_NETWORK_DATA_ACTIVATIONS_SIZE, 1, NULL)
  };

  const ai_buffer_array map_activations = 
    AI_BUFFER_ARRAY_OBJ_INIT(AI_FLAG_NONE, AI_NETWORK_DATA_ACTIVATIONS_COUNT, s_network_data_map_activations);
  
  static ai_buffer s_network_data_map_weights[AI_NETWORK_DATA_WEIGHTS_COUNT] = {
    AI_BUFFER_OBJ_INIT(AI_BUFFER_FORMAT_U8, 1, 1, 12256, 1, s_network_weights_array_u64),
    
  };

  const ai_buffer_array map_weights = 
    AI_BUFFER_ARRAY_OBJ_INIT(AI_FLAG_NONE, AI_NETWORK_DATA_WEIGHTS_COUNT, s_network_data_map_weights);

  return ai_platform_bind_network_params(network, params, &map_weights, &map_activations);
}


AI_API_DECLARE_END
