
/**
  ******************************************************************************
  * @file    network_data.c
  * @author  AST Embedded Analytics Research Platform
  * @date    Fri Jul  1 11:56:20 2022
  * @brief   AI Tool Automatic Code Generator for Embedded NN computing
  ******************************************************************************
  * @attention
  *
  * Copyright (c) 2021 STMicroelectronics.
  * All rights reserved.
  *
  * This software is licensed under terms that can be found in the LICENSE file
  * in the root directory of this software component.
  * If no LICENSE file comes with this software, it is provided AS-IS.
  ******************************************************************************
  */
#include "network_data.h"
#include "ai_platform_interface.h"

AI_API_DECLARE_BEGIN

AI_ALIGNED(32)
const ai_u64 s_network_network_weights_array_u64[ 1532 ] = {
  0xbe48074d3dcea1abU, 0x3df7ecfa3d9603c5U, 0x3d531d223d81e3ddU, 0x3e37a922bdfae46fU,
  0xbdb34e43be4594d0U, 0x3dcefb49bdb2011bU, 0xbe4a3e363de6eee0U, 0x3d5b11373cc5d9fbU,
  0xbd09fb57bcfa1d9eU, 0xbd9cb87b3cd662faU, 0x3c8c78e33e0e7f85U, 0x3db8c6fe3da4c2c4U,
  0xbdb9cb09bb2f4c4dU, 0x3da0bd77bd75f03aU, 0xbcbaa0a23dccf739U, 0xbd2945a0bdb5466dU,
  0xbd390999bd1f4ab0U, 0xbe118c703dc87df9U, 0x3dfab1e3bbb829a2U, 0x3d67e3db3c8eda95U,
  0xbdbab6d1be0098dfU, 0x3e1995bf3de4358eU, 0xbe3376cb3c0613b2U, 0x3d855138bbaa5b15U,
  0x3e27543fbc4871f8U, 0xbe1bfb443b85ee1cU, 0x3cbd23d93d01ff75U, 0xbe7213713de9cf52U,
  0x3e456c03bd3ce1e2U, 0xbe1eda493db185efU, 0xbcf4abe8be3c7461U, 0x3cfdf9743e3b2ea1U,
  0x3dc4d3703d80d162U, 0xbdff8d36be1fcf7fU, 0x3d4467883d119cf2U, 0x3d3164bf3dac9472U,
  0xbd4718df3dfff478U, 0xbe0f2cbe3da2ebf0U, 0xbd96d6373b34e93aU, 0xbd874eac3c89be16U,
  0xbd30c99a3e05cd36U, 0xbdbf5c633da058b9U, 0xbcda4296bc967a8bU, 0xbd09b1acbd3e41abU,
  0x3e1d5e393d3fc36cU, 0x3db858b23dfda4dcU, 0x3da65dd5bd0ce554U, 0xbb168bef3bc6b753U,
  0xbe37265cbdcfb214U, 0x3de581443d62a7f5U, 0x3d4874613e598af7U, 0x3e5472f5bd39ddf9U,
  0xbdeaddf6be31f0f9U, 0x3c1f29be3b70182cU, 0x3c17cc90be056db1U, 0xbe0103953e3accd8U,
  0xbc1fc9c6bd9abe5cU, 0x3e3665df3c41a191U, 0xbca84ec1bc50eb0bU, 0xbe2724bcbdbccdcbU,
  0x3dcd79febd10637bU, 0x3d9978693e404c0fU, 0xbe495dffbe20c6c4U, 0x3e2a49eb3d25f693U,
  0x3d73b3eebc51c47dU, 0xbe02013b3e1142b5U, 0xbd6710fcbd865a7bU, 0x3c27f1113e37408aU,
  0xbe03cf723dc3f068U, 0xbe0a9f0dbdeeeb1fU, 0x3cbd72e3bd764b45U, 0x3e07bd513e1c5bc3U,
  0xbe22eb69bda55ccaU, 0x3e26b7dc3dd1cebbU, 0x3c15f09abda65075U, 0xbcc10432bc02ef11U,
  0xbd0fb49b3e439c4dU, 0xbd824a62be39245fU, 0x3da806033dfd1654U, 0xbdc7f9ba3d8d33e0U,
  0xbdfc3514bdf4db1eU, 0x3e073ad33c2fe038U, 0x3c0c72833dc9172fU, 0xbe09f966be3c8615U,
  0x3e0675f63e4f678bU, 0xbddf8b0cbd22f9e2U, 0x3e24e348bdcece7eU, 0xbd80a87d3dc3408aU,
  0xbe13f8fabdf366bfU, 0xbdcc32febc286602U, 0x3d4ac13c3c1c2ba9U, 0x3d7e810d3ce6fddeU,
  0xbd98b8953d8d85c4U, 0xbd9fe6863e073207U, 0xbde249c53e2e8136U, 0xbd0eb0b13e035dbdU,
  0x3dfeacc13b432fbaU, 0xbd1ac69fbddf214bU, 0x3dd225bd3dda08b1U, 0x3daa12ef3da6618bU,
  0xbc9ce536bcecf0dcU, 0xbe1070353d6f2da3U, 0x3dd43d3abccc796cU, 0xbdd06b713dd9d789U,
  0x3e08939f3c219decU, 0x3dc5c1fa3d8abdc6U, 0x3e30d5bfbd197622U, 0x3d2a1127be1bdfaeU,
  0xbd759dbc3d3369efU, 0xbdb6bb6ebc853290U, 0x3d6b8979bde83d4cU, 0x3d9ba01cbe088d6eU,
  0xbe245836be357f9eU, 0xbdf794b43e15ae7fU, 0xbd0d68fabdddd6e2U, 0x3da69d323e200ec2U,
  0x3d6771103da556dfU, 0xbd235be03de9b803U, 0xbe0a4a863dbb2b38U, 0x3d5326443d428835U,
  0x3db1e56c3d85c90bU, 0x3c0774e13e148174U, 0xbe3b9e74be13252fU, 0x3d6c08fa3e2dfb64U,
  0xbd5b39463ba9ca0fU, 0x3d1998bebe38f76bU, 0xbdb18ffd3e351608U, 0x3e1cd48bbe88c3fbU,
  0xbc2724fabe0eef33U, 0xbd15139bbdcd6e99U, 0x3d807c3dbdaff20bU, 0x3dece20d3c2bc708U,
  0xbda2fdd5bde51c10U, 0xbc404bce3e377470U, 0x3e368894bd264ad9U, 0xbd3a26ea3dedb4f2U,
  0xbd9ca14bbdba936dU, 0x3de11bc9bc9e2c0dU, 0x3d6176aa3e2ba70dU, 0x3e3b931cbdcb8da8U,
  0xbdcdb7f1bd9592cbU, 0x3e5edfd0be80ed0bU, 0xbe1df9d23e18fc79U, 0x3d32a048bd88f8c2U,
  0xbddbf2c03db9a64fU, 0x3e46173fbd0517deU, 0x3dd767adbdf463f2U, 0x3e504791be3f2726U,
  0xbdfa14143e024149U, 0x3d85cdcbbd2b628bU, 0xbd9db025bdd4e4f9U, 0x3e0150f2be0c7d69U,
  0xbdc02eeb3d812bc4U, 0xbd85ebddbe133ebdU, 0x3d236a73be08d236U, 0x3d57f337bcdc6b37U,
  0xbca3ef7a3d9546efU, 0xbc025a843d0de5b7U, 0x3de8ea143dd6352aU, 0xbe25347b3e17caceU,
  0xbda68b713de2e5c4U, 0xbe4cef093d734af8U, 0xbe405e2f3dea6569U, 0xbd89bc3dbd1e5ebaU,
  0xbc8381d8be31aa49U, 0x3c86948ebe3013b7U, 0x3dcd63c7bb2b58c0U, 0x3e0d33113aadc5ffU,
  0xbdd92073bdaad8eaU, 0xbd88016c3de9da13U, 0xbbeefc6d3da16b7eU, 0xbdd6e94cbd9c5379U,
  0x3d7179093bc341f8U, 0x3d0fed72bcb96d43U, 0x3d961f0b3d884817U, 0xbb42a2103d299133U,
  0x3e33b96f3e02d3cfU, 0x3e314662bc843704U, 0xbe0422b2bcf544fcU, 0xbd1200f3be51a8acU,
  0x3d0140d6be12ffddU, 0x3ddf9efdbd761245U, 0x3d445b6a3baceadeU, 0x3d6d604dbe085e7dU,
  0x3ce62b883d0f2ccbU, 0x3d6bcabebde4ef94U, 0x3deac3793c844bc3U, 0xbdcaf5c83c7bf6f1U,
  0x3d037be0bd487a7bU, 0x3e3c8849bd6c5ea4U, 0x3e1144f13e090822U, 0x3c86e6ad3e2c29cfU,
  0x3ae443773cc147d1U, 0xbbd104823e2b9b44U, 0x3d201215bd6d0b37U, 0x3d595d7cbc2aa7ddU,
  0xbb3b372d3e767226U, 0xbda62f95bd9e7e0aU, 0xbc2f613c3dbddc73U, 0x3a1d93383d9dc065U,
  0xbd451ce4bdd476adU, 0xbdd14297bd9af750U, 0xbdcaba40bdcb19d2U, 0xbc4042bbbe097a34U,
  0xbe143decbe6e6e4dU, 0x3d9d1d10be4db7e0U, 0xbd873d10be06876cU, 0x3dbf8726be22c494U,
  0xbdcab774bdc66751U, 0xbd99f938bdffc4d3U, 0xbeb86436bcfdfee9U, 0xbdbd2b7bbe80cd7dU,
  0xbe10a1303d020a8eU, 0xbdc3df3fbc982183U, 0x3ce3a3c4be4b7d7aU, 0xbd212563be7b1ab6U,
  0x3d58ed843d96cdbaU, 0xbcedbfad3e7f0867U, 0x3dee173b3e737ff2U, 0x3e234708bdf9bf85U,
  0x3da1d7fa3d8a7be2U, 0xbe12e4b73e8c664eU, 0xbd7f71493e1bd2dbU, 0x3e964b863e0305c6U,
  0x3e1dad9ebd7cc5f3U, 0x3e0df6b53ca031daU, 0x3e15dcd7bdd3fe77U, 0x3d0c6a21bdb57ae5U,
  0xbd0859bcbd096a20U, 0xbdae80e3bba38069U, 0xbe21a748bddccfe7U, 0xbd0a23e53e284acaU,
  0x3dece8a7bd530e82U, 0xbd283f913e33ba32U, 0x3d6608cc3d426005U, 0x3d0fc13fbbfd3f94U,
  0xbe5891733e0a562dU, 0xbdee8a883d9559a1U, 0xbccb5c893e166597U, 0x3e046d243c1c18f4U,
  0xbe86d04abcd772b0U, 0xbe0c45dcbe23af9eU, 0xbe9ac70ebe15f4a9U, 0x3e3d3928be42b71fU,
  0x3d3da8b6bc0f5233U, 0xbe436d233df2b0abU, 0xbe769337be91beedU, 0xbdba779e3da0a9c1U,
  0xbdacbdf3be10fd73U, 0x3dafa59bbe0b3486U, 0x3d905e14bd136b33U, 0xbe90a731bdca2543U,
  0xbd810f263c872541U, 0x3e3659bb3e9326c9U, 0xbdc4f174bc872f6eU, 0x3e9117753e69f524U,
  0x3df1332f3c597443U, 0xbd9eb0093e061f3cU, 0xbe4af4a23dd39409U, 0x3e87861bbd114267U,
  0x3c5fe8df3e3177ecU, 0xbdac1589bd00170dU, 0x3dfc3f3b3dc71480U, 0xbdeb1c603dc5d613U,
  0xbdb0de96bd173510U, 0x3cba5c1f3daf754aU, 0xbdffaad5bdf85b23U, 0xbd7628bdbdaddc05U,
  0x3e2f9f533dff68afU, 0x3d86e3ce3e2b3740U, 0xbd93af533cd6e766U, 0x3dd12eef3de4fb8bU,
  0x3d44ebca3c911d37U, 0x3ddaad033d5703d4U, 0xbe13495dbdce785cU, 0x3d13cc8a3d2e981dU,
  0xbe96db53be525be6U, 0x3d8cecc2bc40de6eU, 0xbe06f0f5be4e5016U, 0xbd3f31abbcddeb45U,
  0x3c8cc0c5bdf8d10fU, 0xbdc8a337bde244adU, 0xbe45796abc3f31ffU, 0x3e0fdab5bca9b564U,
  0x3d191645be1a14eeU, 0x3d8f7d31be5c75f0U, 0xbe1e7598bdc807d1U, 0xbe83a009bdc55c24U,
  0x3d96571f3a4fc170U, 0x3ea57a243e52197bU, 0xbe1d89323e39801bU, 0x3e78d7d73d2a8be1U,
  0x3dbffeb93e1924f5U, 0x3dc560a43e43765cU, 0xbe09fd7c3afac021U, 0x3e80a24bbe4ca8f5U,
  0x3ba687613dd85d13U, 0x3d270c7abe03b5ecU, 0x3d6cc64ebdf4f06cU, 0x3d331c07bd8da0ffU,
  0xbe0141db3a6403bbU, 0x3b86db113d56fc1dU, 0x3d668a98bd679ddcU, 0x3d949d28bbec9742U,
  0xbd0efeecbe08ddbbU, 0xbd988dfebc4e2f88U, 0xbe19d0b23d8a3202U, 0x3da6c20dbd8c6dc1U,
  0x3d1339e23dd95811U, 0xbda7fb0bbd714d15U, 0x3e0bf6c13d93ac9cU, 0xbd69d5ea3d2ec9bfU,
  0xbe0b890fbd226723U, 0xbe31fbc83ca1ac50U, 0xbd589997bc6c4060U, 0x3dd757e5be5bb0c2U,
  0x3ccb531fbdcf2e91U, 0xbe3aed56bdad4ebdU, 0xbe89ba4dbdd67ed7U, 0x3d045913bd91075fU,
  0xbdcb4e54bcdebfd3U, 0xbce4f224bde87b5dU, 0xbd86c975be1254c2U, 0xbe7f76c9be259d82U,
  0xbc3862b63d9ef397U, 0x3e2221ef3e26b72cU, 0xbddf5b323d1dea16U, 0x3e2e1d6e3de707ecU,
  0x3e5b82383e8b757bU, 0xbd86c6cf3e0c42f8U, 0xbcc2dd8fbba958e0U, 0x3e2ef96e3deda556U,
  0x3e4e228c3dffa169U, 0x3e1b04c83d445fc5U, 0xbdd040003cf5db18U, 0xbe0555f33d2a9f28U,
  0x3b3221d43be3bc4eU, 0x3df4fa0bbe189ec6U, 0x3d75b5df3d5b998eU, 0xbde3a4d03e0782abU,
  0x3ddebebdbe2326b6U, 0x3d73e3c6bbf2ffcfU, 0xbd853a03bcd945a2U, 0xbd9a5e1c3d6e48e8U,
  0xbd37a244bd80d7ceU, 0x3bd65fe13da85fcaU, 0xbe044f9e3d82eab4U, 0x3e0410e5bd300aebU,
  0xbd89a024bd5dbef0U, 0xbe1c4e30bdabfaa8U, 0xbe46c09cbe4f2c62U, 0xbd450963bcd07b58U,
  0x3e0c8dfebe05e160U, 0xbe469c78bd5662d3U, 0xbdb32e12be7bb4a7U, 0x3d2b6986bda41aedU,
  0xbe6245613d9c5ed6U, 0xbd713eb13d2dc1fdU, 0x3d681415be2228e2U, 0xbe24d20bbda1c77aU,
  0x3d1bb5babcf0838aU, 0x3da2d5453e5c652bU, 0xbe0cc3043e205c26U, 0x3e89b6053e094a29U,
  0xbca9522e3e0210d3U, 0xbd9c10ff3e2e3c9dU, 0xbe7ac8c23d2b904fU, 0x3e666c06bc129ba1U,
  0xbd87f55a3c352d90U, 0xbc480f40bb1f6141U, 0x3d806923be24c009U, 0xbe27875ebb174f1bU,
  0xbd8af62fbdcda2b0U, 0xbded58ab3dfda304U, 0xbe3ba5683e148df5U, 0x3e05960fbd604694U,
  0xbd898d3f3d54a9d1U, 0xbdb7ed663c989a72U, 0x3cee6a5fbdf5424cU, 0x3d900ae23dc254acU,
  0xbd3776443c97a1d5U, 0x3dd8f163bb9e0f42U, 0xbd8d3402bd561dceU, 0x3c479335be107c8fU,
  0xbd783364bdcca578U, 0xbdff23cfbe26601aU, 0xbd8942703d1dd7e6U, 0xbe00e6e53cf0c6acU,
  0xbc372b2b3cacfa04U, 0xbdbe3fde3e21ff41U, 0x3c18f70fbe7db876U, 0x3cb49d55be82f9c9U,
  0xbd889d62be16081aU, 0xbdc73e4b3c655cf7U, 0x3c9cdc46bd3b4156U, 0xbdc31b35be4be95cU,
  0xbda7fbde3ca58cb5U, 0x3e7a13143dc1dde3U, 0xbc384de13e117193U, 0x3e44c8ba3db9988dU,
  0x3d7da6163ce92bdeU, 0xbdc245e03e2dbcdcU, 0xbdca4ef53e1c1569U, 0x3dc9ce2fbe23110eU,
  0x3e10c0de3dd63eb5U, 0x3dfc8bafbbec5445U, 0x3dac3c79bdfe56b6U, 0x3c5903923dae6389U,
  0x3d0de0ecbbdf7a90U, 0xbd92ca013d40ff3cU, 0x3e09d1bc3ba7b019U, 0x3d241cfa3e2dced5U,
  0x3d6bdcc6bb08a16eU, 0x3d360b523df0ee4cU, 0xbe0444103dd2412eU, 0x3df0aff1be01b9d4U,
  0x3dd896d13dd75478U, 0x3d6d2cd73e026aeaU, 0x3e18eb863e03bb03U, 0xbe2f87cf3e0b43b1U,
  0x3d28e87fbe901223U, 0xbe415ff3bd2ba596U, 0xbe18bc4abe425374U, 0xbe5adea3be0b70b8U,
  0xbe475850bea712edU, 0xbcd0f79c3d304e24U, 0x3d7f6795bb23ce26U, 0xbe7459fabe946217U,
  0xbe456139bd2a5226U, 0x3cb41814bed0334eU, 0x3d891d0abcc87217U, 0xbd1f24c0bcf8a233U,
  0x3dca79fcbe653d9dU, 0xbdb5dfb6bde099faU, 0xbd0249c0bd8f09daU, 0xbe2d3a05be429d56U,
  0xbe2d55b73d301600U, 0xbe220106bdf85ed4U, 0x3da16aa4be3215bfU, 0x3dcfdda13c83ad7dU,
  0xbc8e8fb63d34ce29U, 0xbe6d2ac0bd0a6b32U, 0xbd415f52bdb71b3fU, 0xbd8d4718bdf742fdU,
  0x3db7c451bdc96ecaU, 0x3d92117d3db4874bU, 0x3d8063ba3da8602cU, 0xbdc86962bdc12b68U,
  0xbd14f33d3cef367aU, 0xbca6e40ebdb91fb2U, 0xbd7bf6e33dcb9967U, 0x3dcdc2223d1b2160U,
  0x3dd6f57d3d83b6c8U, 0x3de522f6bceff7caU, 0xbdbdc813be077ad4U, 0x3dcfe9f13da8bb07U,
  0x3d12a15cbecf6fd2U, 0xbe83af02bde9107fU, 0x3d08e9ffbd911a46U, 0xbe417423be8738d2U,
  0xbe136101bde2a29aU, 0xbd810930be1eeb6fU, 0x3c48e129bdbc988eU, 0xbe87075dbdaa7327U,
  0xbd49deafbe1898e0U, 0x3d4a925abe454418U, 0xbd925395bd97be23U, 0xbd71b1bfbd8df9f2U,
  0x3de8bc313dcbbc81U, 0xbde5f1f4be173537U, 0x3de0c56cbd6f2d5fU, 0xbe14aeebbe103c3fU,
  0xbe0bebecbdb56706U, 0xbb738b91bd501276U, 0xbe013c20bcc8f5b4U, 0xbe348fe4be30b5a5U,
  0x3c79ab15be2c3247U, 0x3d3966d2bdf737b3U, 0x3d1b02f4bc9caa99U, 0xbe153eefbdb1e8adU,
  0xbd539c17bc4a98f2U, 0xbd32bd28bc1cc8d4U, 0xbe0467083d1f7e4bU, 0x3d9b62533c8bdfbeU,
  0xbd4a27aebd51fa08U, 0x3d477890bcfa0476U, 0x3ce767783d49f369U, 0xbe272a9fbd1c506eU,
  0x3bb17faabb143e3dU, 0xbb24ad82bd40b91cU, 0x3be7a141bd88c675U, 0x3d49a9cfbd2dc9edU,
  0xbe27f7c8beaabb16U, 0xbe94b0a2be611c9dU, 0xbe003d29be9885c9U, 0xbe623bb4be443f53U,
  0x3d42c401be3312f9U, 0xbded7036be8dbd1dU, 0x3cb6a23fbd993076U, 0xbe4550603ad86656U,
  0xbeb1f8aabdba6c63U, 0xbe49c3f6be3bf240U, 0xbc261a8e3e2e0078U, 0xbde58bb8be972a5cU,
  0xbdb8d502beaa666aU, 0x3d19dc143d180a37U, 0xbd57d3a9be0f1c0dU, 0xbe2a74e6be85a26fU,
  0xbe1f69983cfb2d73U, 0xbd67ab36bd390178U, 0x3d3a3dd8be03a343U, 0x3dff18593e04561cU,
  0xbe8e83e1be355ec1U, 0xbe48aa3ebe1a7c73U, 0x3da2ca213c35a67dU, 0x3d0ad4bc3c0c65fdU,
  0x3c2b0fbfbd7cc234U, 0xbdb3a8f5bd6d55e2U, 0x3e3616663d9d6f34U, 0xbd3d4eb53cbebd08U,
  0x3d31c1e83d87e946U, 0xbcc5b0053dbff24bU, 0x3d3b6e823ce726a4U, 0x3d9715c8bdf60522U,
  0xbdcc0d29bd09d430U, 0x3de8a3f83d47cc3aU, 0x3cddde23bd223284U, 0x3c2d050b3db52750U,
  0xbd1e5b74bde1b1d7U, 0xbe10efa0be1d9e34U, 0xbd5b23583cf2c67fU, 0x3ce0737dbd978845U,
  0xbd856505be2f6e0eU, 0x3da77d483a2a7f81U, 0xbd7318bcbd8bbbe3U, 0xbbbe28ef3dc79dc7U,
  0xbdf9cf623de7558dU, 0xbd8fab4a3ca9c1d4U, 0x3defc118be272831U, 0xba99656a3d2365e1U,
  0xbd5746753b8fb919U, 0x3d0e48083d1a5d90U, 0x3d7ed6ea3db2f5e9U, 0xbe082260bdd24ef3U,
  0xbd056cbe3d57a864U, 0xbe32b752bde7287eU, 0x3d0fabc7bd4fe769U, 0xbda73b7d3d680d15U,
  0xbc6c8c70bcffa349U, 0xbd4693b8be32918aU, 0x3de11963bdc1bd97U, 0xbda844d13c723295U,
  0xbdf87224bd7dcd80U, 0x3d31a9eb3e0e05e0U, 0xbd4844383e1ad8a1U, 0x3cc8e74bb69bbb8bU,
  0x3d797dc8bdf5b127U, 0xbdd131cabde3c316U, 0xbdc97ccc3cc1308cU, 0x3d34dbd83e0f910fU,
  0x3dcd9d523d7db2dfU, 0x3bea0f8e3d1a58d5U, 0xbe151eaa3cd861e8U, 0x3dc210e3ba568e86U,
  0x3dbfc430bdea7e97U, 0x3dbb7cafbd1b464fU, 0xbe19ef943d90f926U, 0x3dafefb33d6a557fU,
  0x3dc630ee3d9886a2U, 0xbe387724be2b08f0U, 0xbd6fda103d4223bbU, 0x3cbbd17c3df56a66U,
  0xbc1dc8993d6c435aU, 0x3d68585d3ce20b70U, 0xbe0a0d91be02ff2eU, 0x3d03c1d13d42e1aeU,
  0xbdcd5757bdab6ab5U, 0xbe1781e4bc2ef826U, 0xbddc33333d234058U, 0xbe20a32c3c8d36f0U,
  0xbd9d40943dc7f7a4U, 0x3df6b97d3de4ffd3U, 0xbcfffa57bdc75031U, 0xbe46cd9ebddb3ba9U,
  0x3d58d6e33dd68eb5U, 0xbd42e225bd3aa3c1U, 0x3dadf733bda96522U, 0x3d56aafb3dfe5563U,
  0x3c8332473e029ef2U, 0xbc926d93bd89c98cU, 0xbcf261273e16d7c3U, 0xbb7bfe793e0740eaU,
  0xbcdec575be151b1fU, 0xbcb90f73be012399U, 0xbd923f34bdd357acU, 0x3c97a9a13c88c525U,
  0x3dda44a13e08bb13U, 0xbe2d71a83d19f101U, 0x3d2969763df8c00eU, 0x3d3701d53d323432U,
  0x3dd2939cbca72b0fU, 0x3cf332e7bd946e73U, 0x3b067041be372747U, 0xbd8355463d8bd36bU,
  0x3e0899813d8755faU, 0xbb76786bbd7a1ab6U, 0xbe03f1df3e09270fU, 0xbd7c6f66bc8b60c6U,
  0xbd81bce13d9cc163U, 0xbd924a03bd9974c3U, 0xbdd4a87bbcc542b1U, 0xbd8d39ebbd927f31U,
  0x3d2a975dbd0d5ffcU, 0xbe106de93d25f359U, 0x3ca351c73dcd6079U, 0xbe17ad13bd8e585bU,
  0xbe036219bd425daaU, 0xbdce2ea63e0a33c5U, 0x3c19f2dcbd5646a7U, 0x3da6713cbcdd6547U,
  0x3dff77be3d79e30bU, 0xbd23254bbd333851U, 0xbd27088abe258cbaU, 0x3d4b027b3d78aa08U,
  0xbdbf567f3df9274cU, 0xbc500da3be06c319U, 0xbd991713bdbd79d5U, 0xbdd00c893e446a0bU,
  0xbdc2f4a0be3a90f4U, 0x3ddcb375bdfbaf2bU, 0xbd84abedbd3a9c15U, 0x3e1848ea3c078a79U,
  0xbd6432a33e2816c1U, 0xbd5945cc3df675b0U, 0xbe2b38eabdcf1c63U, 0xbe09c336bd828522U,
  0x3e07c281be14a31eU, 0xbdb3f4cdbe005084U, 0x3d6417dcbd8f52f9U, 0xbd3b3674bdc3999dU,
  0xbdc1b57c3d7261c4U, 0x3d7b81c4be28a900U, 0xbdccb62dbe0280f4U, 0x3b2e905e3bceeb15U,
  0xbdafdbacbe051f00U, 0xbd8006b63c9f1cb5U, 0xbe105f7ebc497743U, 0x3e184d793dad4270U,
  0xbdd16c26be0deb36U, 0xbe11de1fbe08fe00U, 0x3d839fa4bdfa5c52U, 0x3d7c293dbe016209U,
  0xbd628c193e209585U, 0x3c8894d0bda58dbeU, 0x3d67947a3dcc62baU, 0xbd675437bcf90a7dU,
  0x3e04e0603d753680U, 0xbcbe45e03e23e21fU, 0x3def2ce23d8f068aU, 0x3cae467e3de4f1f3U,
  0xbd1fd478be25400cU, 0x3ca3c1683d4b0e4bU, 0x3cb8a9df3cc26995U, 0x3dbd2e263e21f4e3U,
  0x3d6389403d82c1ddU, 0xbe19b4e5bd058d04U, 0xbdb9818ebc912099U, 0x3bc8f160be08fa91U,
  0x3de37b023d8974deU, 0x3cfa3680bd9ce0c0U, 0xbda84480bca33300U, 0xbd3124eb3d9cd689U,
  0x3daea04cbd4c7ab4U, 0x3db8772abba459c0U, 0x3d438e04bc89bf12U, 0xbcbe1687bdef1956U,
  0xbe2dde983dd16040U, 0xbd40eec53d96eb08U, 0x3cbedb17bdcab55dU, 0xbd19cf0fbe15eb9fU,
  0xbd9c83513da75fe5U, 0xbc4b8f323d1687d4U, 0xbe25422bbdd52cadU, 0xbdf0a84abd467f60U,
  0xbd9b613fbdf05141U, 0x3cd213d6bdab55e7U, 0xbd6fe009bb6dfaecU, 0x3bee3360be15015dU,
  0x3da101043cb57200U, 0x3dad9725bd2ffb49U, 0x3da69fa8bd7999b6U, 0xbe1094edbdf5476dU,
  0x3c90c9983cd1a301U, 0x3cd2fcb03ddd428aU, 0x3d9045d83dc587fcU, 0x3dc53ba8be096a29U,
  0xbe12ff3dbe064528U, 0xbdf4d0b9bdb0d1b0U, 0x3d0c9283bd11e1abU, 0x3d12df363d9a154cU,
  0xbe1b540c3d37fba5U, 0xbe0e7cffbe0448d1U, 0xbdf784f8bd61520eU, 0x3df9369e3ca42e2cU,
  0xbd658e5e3ddaf2a6U, 0x3da6ffee3d5d107cU, 0xbe0b3fb83e148d29U, 0xbd4118e3be07a444U,
  0xbd9d66c43cd98feeU, 0x3db6bdbcbdb1236cU, 0x3da6293c3e10bd9fU, 0xbe2685153db15d0bU,
  0xbd6337f93d6ef445U, 0x3c068f983d647f8cU, 0xbe0ad400bde5ae6fU, 0xbdf828ddbd1f22caU,
  0xbe1c2d59bd0e0329U, 0x3d2cd110bdfb0d7eU, 0x3d2888b03d39fe93U, 0x3e03161fbddf94d1U,
  0x3bf37d59bc9a5455U, 0x3dda8da6be26feb2U, 0x3dc7a66a3de0e8ceU, 0x3d3761c0bd29b459U,
  0xbd3b72203cf5246fU, 0x3e0410fbbde71c4cU, 0x3de5cbbf3d8d8258U, 0x3d89d372bd4e3d20U,
  0x3d13a844bdf5897bU, 0xbe16466f3dc2e387U, 0x3dfaf488bd36193aU, 0x3d69361cbdf9f968U,
  0x3ddb3d1a3dcb318eU, 0x3cb302c03e0b3e95U, 0x3df9d1f3be127aecU, 0xbdb72c10bcc76060U,
  0x3d742208bc02596cU, 0xbdcb906a3e0d47bdU, 0x3e03028cbd8b8903U, 0xbde304d63db59194U,
  0x3df2e9a6bd2002b2U, 0xbd2e4a7abe0666a8U, 0x3dcfa7493e23496bU, 0xbdeb9f3e3c8e1dc6U,
  0xbdcba3cf3d4add6fU, 0xbda8347e3de62702U, 0xbe709ee1bc631141U, 0x3b86bafcbe09cb63U,
  0xbe024b93be0f848dU, 0xbe15908f3e5226adU, 0xbdab3c28bd895eb0U, 0xbdbd2e65bde99b90U,
  0xbe1bd0c2bd299828U, 0xbd8bab8dbe58f282U, 0xbd4ca571bd8d5b48U, 0xbd9cb42abe6ac68cU,
  0x3e15d4bf3c15a52bU, 0x3e1b78393c88abf0U, 0x3d753baebe1866faU, 0x3e1330db3c52505bU,
  0x3e6f84f9bd73b75bU, 0xbdca317e3e5dbe51U, 0xbd5a4540bbd1f7d6U, 0x3e5c7bf73da2f2aaU,
  0x3c008c2d3d75afdcU, 0x3d9c70943e072a35U, 0xbdbd42573d18fed6U, 0x3dd4fba2bde6c4e4U,
  0x3d155f373dc71b7bU, 0x39dd2eeb3de396edU, 0xbda0a6b5bdcb5536U, 0x3be0fa5d3df0264dU,
  0xbe1db4fd3d8e95bfU, 0x3d9206cd3d7dd6a5U, 0xbd623b58bdcf7632U, 0x3de79ef6bd9c9dceU,
  0xbdf12ec03e3889a2U, 0xbe123a773d8c7d98U, 0xbb8124c33d91fe36U, 0xbd6791b13dfde67bU,
  0xbe65a311bdf3a70dU, 0x3caf78b5bd801665U, 0xbd9422d93e1d8c29U, 0x3dcccb07bda0595eU,
  0xbd31ff3abde78d21U, 0xbe20b7a13d71cdfeU, 0xbe799b5ebd291a67U, 0x3d52617bbe37d1e9U,
  0xbd0c256a3d6c44f3U, 0xbdd318e0bdf74f4bU, 0xbe3119dfbd448c22U, 0xbb4a08a1bdb2cce1U,
  0x3e3ac24cbe22441cU, 0x3c59e4843e240bf6U, 0xbd873b753bd287f2U, 0x3d53e81f3e0aacc9U,
  0x3deefab53e268a8dU, 0xbe1bdd373e077de9U, 0xbd7e879bbcd01508U, 0x3e1df7cb3d8b2d0cU,
  0x3d8e03853d05fe24U, 0xbd7b10ad3cf39323U, 0xbb5a73443d307e54U, 0xbd89ae74be055c46U,
  0xbd2b366dbe392831U, 0x3de291193c267a7aU, 0x3d8b8b33bdceb8d6U, 0x3de77e6dbde4a571U,
  0xbd742bb9bdf91b6dU, 0xbe3631e9bba45eb0U, 0xbc766fbcbc2b590cU, 0xbd1f1c9fbe01373aU,
  0x3d5c29ac3e5e192eU, 0x3e2335b53e04b099U, 0xbd4a088ebdf86e04U, 0xbd1840b7be1122cbU,
  0x3d0dfb29be295c29U, 0xbe4334683defa08dU, 0xbc1547fe3d830e3dU, 0x3e123e733d310e2dU,
  0x3dc172f4be70d00bU, 0xbcd232ddbd9085adU, 0xbcdcba7abdf09ee8U, 0x3d4d3c83bdf57cb6U,
  0x3e0f09e8bdba1b0cU, 0xbcecc7c3be37fc87U, 0xbd917682be2a0a87U, 0x3d048b3cbd0b1cd1U,
  0x3b308790bd3cf560U, 0x3d38090a3e2e7accU, 0xbe12d15abdd100dfU, 0x3e3d44c2bdb6ddfcU,
  0x3bc872443db35271U, 0xbe0df62dbd9f72beU, 0x3d64bce6bd7b9872U, 0x3d402af5bd8e3b34U,
  0xbd3bfd5ebc9b7aadU, 0x3debef443dc6ca5cU, 0x3e3d9ab5be0c3254U, 0xbd47f92cbe1df1a0U,
  0x3cca85093d60832cU, 0x3d139b973d2a6f08U, 0x3da870e1bdcec40cU, 0x3da938743e12d942U,
  0xbd7acd43be058fc0U, 0x3c58a41dbe052287U, 0xbcd807c33dac426aU, 0xbdf40d52bdb39b6dU,
  0x3e396b64bd92ab26U, 0x3de47e203d78e268U, 0x3d962cf63b0db140U, 0xbd2b2a823cd7f394U,
  0x3d99453b3d84df4aU, 0x3e16f5cdbd1235adU, 0xbd3b43f33d49539dU, 0xbe10820fbdb4621eU,
  0x3e03f13cbd4f73f4U, 0x3d1a85b03dd90c31U, 0x3da10e593d7f338aU, 0xba9cd05e3e0b0db3U,
  0xbe0ba4bf3dc4b899U, 0xbe1feff43dcbe790U, 0xbdda21b9bd0bbc83U, 0x3e11343dbb6171f2U,
  0xbbc90b983d8c85bdU, 0x3cf435ba3d2ed7a3U, 0xbe07701abd859c82U, 0xbd2948413d32ebd9U,
  0xbdd44c613c235d22U, 0xbc7773903d62252dU, 0x3c79b0233de7f5ebU, 0x3dc6a73a3cc429f6U,
  0xbda859853e0adfdfU, 0xbe19a66a3def8338U, 0x3c956d063c80e7b6U, 0x3ddbebe93d030e69U,
  0x3e0460683e066be9U, 0x3dc0ece6bd95afceU, 0xbe24cd0b3cc9eaabU, 0x3d472e0dbda5046dU,
  0xbdfc5b1ebe337fa9U, 0x3c6405933d8933a2U, 0xbcdfc459be1280ebU, 0x3e2438ad3c099a5fU,
  0xbe204e613d2dcab8U, 0xbde3467a3e1f0f61U, 0xbd85a128bb989f00U, 0xbd9d25dbbaf6c2e4U,
  0xba6ac7ccbdcbf022U, 0xbd2db83f3d22c806U, 0x3d71394bbc074678U, 0x3d77f5d0be099676U,
  0x3cf90febbe1569b0U, 0x3da302dbbd031b53U, 0x3de4aacd3d31001eU, 0x3dad628abd943f2aU,
  0xbc2579753e02d48aU, 0x3e19b2653d52a5a7U, 0xbdb045993d7179a8U, 0x3d9316283d5afae9U,
  0x3bc31320bd2def0eU, 0xbdef439f3dfcaaceU, 0x3c57d046bd0e8171U, 0x3db1fb4a3dbe450dU,
  0xbe2ea94ebe052c58U, 0x3d1375b9bd755c34U, 0x3d539912bdbbf3aaU, 0xbd7a6263bd83ff3bU,
  0xbe129f5dbd61d823U, 0xbdc1ad623d0ca590U, 0x3d896c733c3208d9U, 0x3d84cb35bbf15e1dU,
  0xbe1af299bda2a29dU, 0xbe2ecd58bdb061f0U, 0xbdf62a763d027c06U, 0x3df97a00bdb1fddeU,
  0x3e1fe4b9be08eafeU, 0x3b189f653dd8ba0aU, 0x3a9178fdbd0a45eeU, 0x3d86e6e0bdb35d3cU,
  0x3e1e29093ca01748U, 0xbe09ed0b3de6375eU, 0x3e108b4abe01e524U, 0x3c81feb7bdfc59d9U,
  0xbe29efbbbc5a95e6U, 0x3d3b20523ded89c4U, 0x3dd1025a3d5e157bU, 0xbded184ebd6ba5fcU,
  0x3e1075ad3a75d02eU, 0xbde21e52bd726818U, 0x3d206f3cbd0f3e99U, 0xbd68a9b13cc340c1U,
  0xbe04a9bebdb975aaU, 0xbdebf79b3d49f64bU, 0xbe11e3ea3de9db15U, 0xbdcb55f4bcf61168U,
  0x3e07d87c3d83078fU, 0x3d4e74653d868637U, 0xbdce6e4fbdba6cafU, 0x3bbe8f9b3de21b4dU,
  0xbe2f40d1bdb368e1U, 0x3dd0ea6a3e05f07cU, 0xbc699a7dbd10ff92U, 0xbb1baa5dbd9e0fbeU,
  0x3d14b52e3db240f2U, 0xbdb3198abe0182aaU, 0xbd0537273cfded52U, 0xbda7b0bfbd74a95eU,
  0xbde9545c3c7e0d58U, 0x3d6b50a13d5e3acbU, 0xbe1573d13cd2fa1aU, 0xbd6061bfbd779a5cU,
  0xbe0526e0bd2e3705U, 0x3dd6517a3dbd2106U, 0x3d86a7973d9215b4U, 0xbe0baa38bda6d090U,
  0x3dfcc9b6bd5c884cU, 0x3dbc22dbbddf5369U, 0xbe36370bbc0b2750U, 0xbdeb667abdba12abU,
  0x3da7e572beae1970U, 0xbe46db5bbe8d7e65U, 0x3c1460a6bc952eb1U, 0xbe9574a9bd81cf37U,
  0xbe979774bdc560c8U, 0x3cc29cc83d85ddffU, 0xbdf31684bdd09c26U, 0xbe90e242be97e9f9U,
  0xbe243b3fbe55652bU, 0xbd1c1f74bea03c27U, 0x3d5b72903e36e723U, 0xbcbb1b98bd4a03bdU,
  0xbe02858cbe4ddea0U, 0xbe0f84383d6238fcU, 0xbde9933bbd50cc63U, 0xbca2926a3c76b276U,
  0x3d95481d3c0d645fU, 0xbc83d692be724379U, 0xbc976eb8be06a0d2U, 0xbe6c4d5cbe0dd3d4U,
  0xbe379f603caf2828U, 0xbc2e09c3be1fc448U, 0x3cdfbba1bd01eba2U, 0xbe63cf7bbd0d40ccU,
  0x3e1955af3e1915f9U, 0xbda5fcef3d079a04U, 0x3d315664bb1e21a0U, 0x3c377ba4bdb83d36U,
  0xbdd521ae3d8adc5aU, 0x3d7721ffbe279855U, 0x3ddb7a003d8e4f04U, 0xbc280b843de3f797U,
  0x3da210bbbe08b1a5U, 0x3b5acec1bde0a499U, 0xbd91d22ebe0987c2U, 0x3e05136d3d946c26U,
  0xbdb2ba02be4bb8d8U, 0xbe80041ebd3c6595U, 0x3d9d9eec3d8492cdU, 0xbe5d332fbe7ccc1eU,
  0xbe12ed91bdb05182U, 0xbe4dfa93be223ed8U, 0x3da781efbe316b7aU, 0xbdd41c9fbe340948U,
  0xbe4acff5bdda061aU, 0xbd824814be9d5963U, 0x3d2e1aa13e0d5426U, 0xbdb13ea4bdc698afU,
  0xbc426f4abdd45cedU, 0xbd7231873d03574fU, 0xbd0c66003ca54dc0U, 0xbe10a27a3d86942aU,
  0x3d740140be2be765U, 0xbe0401553d1ba269U, 0xbe2c54c7bc7e1a4dU, 0xbe1c6a31be3fb92fU,
  0xbdf72bcbbe09b9eeU, 0xbc5d1016bdaa93f4U, 0xbdcbcd20bd538b94U, 0xbdcc99503caa6f63U,
  0x3d8b9b66bcd2ed6fU, 0x3d95ac5ebd8f0a96U, 0xbcdeb36fbdafbb1cU, 0x3c15213fbb402d71U,
  0x3e02c443bd3b9f79U, 0x3d9ee93e3dae32f5U, 0xbd3f0cb53e2480e6U, 0x3c09255a3dd86197U,
  0xbd912ce93ddca10aU, 0x3d82fa21bdc736a1U, 0x3e0c0cf13d5db54cU, 0x3e3831abbd9da6e1U,
  0xbd3414c5bdb1bc16U, 0xbea563dfbe81291dU, 0xbd1a1ffabdbae271U, 0xbe887b9f3d16bcc2U,
  0xbe14e8cebe34cdd9U, 0x3cf54d8ebe45ea61U, 0x3d713ef13dcd585dU, 0xbedbe1c8bd3220a2U,
  0xbe576b83be8838e7U, 0xbe64ba95bd470e0aU, 0xbe369e2bbdce0404U, 0xbbccc551be82896dU,
  0xbdb5a5d5be4a50a6U, 0xbc7d2773bddde4e2U, 0xbde6f803bcdc4a37U, 0xbd6e6dcb3d12098cU,
  0xbdf7ed80be4f7203U, 0x3c954091bd01c1d2U, 0xbe21018dbe46ef6eU, 0xbe28e063bdc623c8U,
  0xbe490ab9bb546a6fU, 0xbca4b2ec3c8fbecbU, 0xbe4c7bc6bde4f5c4U, 0xbe4a7c51bd97340fU,
  0xbd8ca456be078609U, 0x3dcc4a25bd6e760cU, 0x3e3f7c673d22c9a1U, 0xbd4909ad3db283faU,
  0xbd6fa7b2bc734f17U, 0xbe20db1f3d04fe8bU, 0x3ce7df64bcbb1e66U, 0xbe103e4fbd1fa4daU,
  0x3e2e293dbdcfda9bU, 0x3d0ae4b43db545dbU, 0x3d171f9e3d8c9c14U, 0xbd2a87f9bddc7b33U,
  0x3e0deb7f3edc19efU, 0x3ec0b9a63e9638f9U, 0x3ec260113edd292aU, 0x3e591b1e3ee9dafeU,
  0x3ebfa15d3f047114U, 0x3e24a1493dcd8500U, 0x3efd73093e54207bU, 0x3eb623b63f2171feU,
  0x3ee1c6a23e8bc08aU, 0x3e8ed5ff3ef26cdfU, 0x3e7973253e2abf48U, 0x3eb8d38c3e83dd25U,
  0xbdbbeeefbc7d94adU, 0xbe6707a6be607a1fU, 0x3e3a34d23dff9f42U, 0x3d14f924bd38e3c9U,
  0xbe8a635dbe36d87eU, 0x3e1a17dabe8cee68U, 0x3d904e0abe25eb92U, 0xbe24bd283de3a2edU,
  0xbb4761e73e22c88aU, 0x3dd7fcdd3d162d5eU, 0xbd8957783bdff36aU, 0x3e519fd43e28b08fU,
  0xbe0735423d8d7c2fU, 0x3d78230e3e068034U, 0xbdfa8623bd42de21U, 0xbde6e0423e1de188U,
  0x3cc6ba433ca8ac98U, 0x3d22acce3d129c4eU, 0xbd376aa1be12d748U, 0x3da92c87bc157f48U,
  0xbdb605c23c44cba0U, 0x3d89089e3cbfe43aU, 0xbd95dbe23df44ffaU, 0x3dc491c43dceaf2bU,
  0x3e05431b3ed9e9e9U, 0x3e8b32163eb81116U, 0x3e763c5a3e9ae804U, 0x3ea380513ee3acb0U,
  0x3e1b7a483e458d35U, 0x3e8ed7063e823b29U, 0x3f07bbd93e6eca80U, 0x3ed1c7133e8bd20eU,
  0x3ec687713e6c244fU, 0x3daa31113ed28fa8U, 0x3e794d00bcebe5c9U, 0x3ecd34103edfe8c6U,
  0xbd893a73bdf97f69U, 0xbc943fcebe37790cU, 0x3ac9681b3d3561ccU, 0xbe2cedd6be325e5fU,
  0xbd9b3236bdf89857U, 0x3dc68845be2f53c2U, 0x3e96e695be0fcf3dU, 0xbe5935253d6b2e71U,
  0xbd98266b3e03f261U, 0xbe4c1cd5bc60463cU, 0xbd7159193e67d867U, 0x3cbcb7ac3e323d3aU,
  0x3e26523e3d48cbf0U, 0xbdd030e0bd182733U, 0xbde0456d3db28e62U, 0x3dc495c23d81cf48U,
  0x3d344d263c81f017U, 0xbd4a7128bde5a90bU, 0x3dffafa63e11bee0U, 0xbd3c588ebb370536U,
  0x3e18a6ca3dd22fa6U, 0xbd0765363ded7b78U, 0x3d8585453b8d5060U, 0xbc799fadbd3694fbU,
  0x3c97c8a23efc0dc6U, 0x3f1001be3edcd488U, 0x3eb3fbf13e424026U, 0x3ecd6c2c3ebb4d37U,
  0x3eacd3f83efe85e2U, 0x3eb3b7ed3df53e74U, 0x3ef5e5023e06fb48U, 0x3ea41a243eeb86b2U,
  0x3eda4c183e48cd09U, 0x3ebaf0633ec04d19U, 0x3e18238b3d7aee6dU, 0x3dbbe3cb3ed81514U,
  0xbe99b0923cc9fabfU, 0xbdd41a90bd2f5e2aU, 0xbd54ba6c3dee36ddU, 0xbe8bf1003d103901U,
  0xbd048518bd1ff84aU, 0x3d716f75bd53bc55U, 0xbd441841bdd9e83bU, 0xbd643792bba0a2dcU,
  0xbd27c7623cc306d5U, 0xbdf2b9763da2c721U, 0xbe1648bc3e541e6fU, 0x3d9b4b6d3da20a12U,
  0xbdaf73903c969880U, 0x3df1bad2bcfbb152U, 0xbc649a023e67faafU, 0x3d66ece0bd854b2cU,
  0xbda94b363c351cb2U, 0x3de73d123c961317U, 0xbd9e8330bdfbc743U, 0x3cef4e2d3e4c55e3U,
  0x3e20affabd037912U, 0x3da7a9c6bd059974U, 0xbbf9e43b3dcb88aaU, 0xbde491663d61cde5U,
  0x3e228e7e3ceb84a3U, 0x3e4fba6bbd7d2700U, 0x3e1b95f23e4acbc3U, 0x3e42fe67bb31305fU,
  0x3d0866d23e2671f2U, 0x3d6bddd1bcf81c57U, 0xbcd4bb80bd6512c4U, 0x3dac5245bc9c529aU,
  0x3dda20943e597724U, 0xbd39bd713e75c75dU, 0x3d05249f3e7c3377U, 0x3e7bdba53e4a1e43U,
  0xbdaa9d753c00e7baU, 0xbe344d943d0c4d11U, 0xbd222d543e32dcfbU, 0xbd3a20a3bd1c52c5U,
  0xbe2126953d68ff7eU, 0xbceb03923d99a95aU, 0xbda0367dbdf4b2aeU, 0xbdb08c45bd6d3f5dU,
  0xbb9420433c93be8fU, 0x3c2f4c5bbdf90dd6U, 0x3cf951583e1e1c7cU, 0x3e3a49133de5f855U,
  0xbdfad7063c921c4fU, 0xbe09c3eebe0e9386U, 0xbd9386983dcfdd8fU, 0xbd3cb16f3e0a0eccU,
  0x3e2a9de7bd985854U, 0x3d1016e53d83ba37U, 0x3d96f11dbd3c2f5cU, 0x3e10b9693d24fcaaU,
  0x3d9c2ea53ddb0bbbU, 0xbdc36e3a3e259c1fU, 0xbe279654be0ced00U, 0x3ddf3da93e0fa85dU,
  0xbcbc7ab93ddcb4feU, 0x3d7085833e08b2f9U, 0xbc228fbfbd431569U, 0x3d82de29bd0879d0U,
  0xbdbcb1343d627adeU, 0x3d92e5ea3d077a13U, 0xbd607b643dc2cfb7U, 0x3c9956103e16d7caU,
  0xbdacf03b3e274c71U, 0xbda7f21d3e55bfacU, 0xbd0b212c3dfd0128U, 0x3e2e2ca23c8f6ddfU,
  0x3dbf5799bd2f548fU, 0x3c0821753d1c01b0U, 0x3def45783e27803cU, 0xbe06c2a03d51cbe5U,
  0xbc53f39bbe3bf92dU, 0x3d4b2b32bdc3b46fU, 0x3e31f262bc57b73bU, 0xbdeb58463d9e926fU,
  0x3de64be63e0009b7U, 0xbbe6adbf3e1067ffU, 0xbc0e11373e602eb2U, 0x3d98737c3e23c55cU,
  0xbe0b63f6be060cbbU, 0xbd0feb4abdded464U, 0xbe0804383e07b8d9U, 0x3e0cde7bbce997b3U,
  0xbd518dd8be19f886U, 0x3d37f01b3c389349U, 0x3e078090be33bf7dU, 0x3d6b9e963df41ad3U,
  0x3dc8786ebcc88807U, 0xbdc3a4ef3e613289U, 0xbe042f8d3e0606d1U, 0xbcb1a694be1f8879U,
  0x3d53b5fdbd0ce36eU, 0x3e815030bd98c72cU, 0xbc8e4ec63d8deda5U, 0x3ddb55b73c82a058U,
  0xbdbdf3283e5a8fefU, 0x3e80385fbdd1df7cU, 0x3da842b93d48cf80U, 0x3e19c79b3e1857d8U,
  0xbc09de2d3dafc9e8U, 0xbdbc7eae3e2e11e7U, 0xbda0eebe3d829ffbU, 0xbded393e3d28727aU,
  0xbe02c8ce3e137edaU, 0xbe27621ebe6053cbU, 0xbe1840c7bca0a209U, 0x3c43cf763c8c7d53U,
  0xbe371227bc5dab5cU, 0xbd147bbbbe645b99U, 0x3e3f8aff3dbb244fU, 0xbd6b3038bd88be10U,
  0xbdc8d4a03db25aa8U, 0x3cc7943c3e2d8504U, 0x3d5106f43e3d4193U, 0x3e01701d3d77c0c3U,
  0x3c9fd09c3e12778fU, 0xbcff118fbc559811U, 0xbd4a6f2e3e08013dU, 0xbde0e6a03d3cda3fU,
  0x3d7fc035bdd842baU, 0x3d1cc08dbe1ab5eeU, 0xbe385e60be1683a0U, 0xbd529fbebd095c4fU,
  0x3d3a2b99bd27f700U, 0xbe1021da3ea90147U, 0x3d5fb8debdd688d0U, 0xbde901913c20a7afU,
  0x3e0e1fe03e19614fU, 0xbdd9f0b7bc0d33bcU, 0xbcb8d03b3e1e5be8U, 0x3c543f8f3c8176d9U,
  0x3c9579253d1432ddU, 0x3db19a44bd23763eU, 0x3deda92d3dc09b00U, 0x3e10c6e9bdbffd25U,
  0xbd0bd04abc28d247U, 0x3d980df63e41b211U, 0xbdf91275bdfc846cU, 0x3d5ff92fbd338217U,
  0x3e03c1053e1376d8U, 0xbcb79963bda294baU, 0xbdb992223d144c8bU, 0x3d8f5f5e3e0d1670U,
  0xbdf43aab3dcac661U, 0x3d4c340d3e0b1d5dU, 0x3c9436883e66c462U, 0xbda1fca4bd0f738eU,
  0x3e406bdc3d8de2d5U, 0xbaf3e623bc928e38U, 0x3e0df7783dff8980U, 0x3dafc3783d51340cU,
  0x3dcfd6bd3bdb23d3U, 0xbd86ca043dbc3af7U, 0xbda381523dee9172U, 0x3d366bb8be50bb49U,
  0xbdc912d93dd27ef5U, 0xbdb2e2853e01cd81U, 0xbde5c306be1be988U, 0x3d45f3d4bd35d09eU,
  0x3d6d3668bdfbedd0U, 0xbb0e1714bd6040a4U, 0x3d909689bcc14608U, 0xbe29d7f83db4705eU,
  0x3e434554bc4e7d0cU, 0x3dd4b7423decb4b4U, 0x3e287e973e3c248cU, 0xbd4160edbbd5fc70U,
  0x3d2002e9bd4c172bU, 0x3e04761bbc8376fcU, 0x3da054da3e0bacdbU, 0xbd05cbc93da3de0dU,
  0x3ddd09a83e1adf94U, 0x3e248b5cbca74fa8U, 0xbc3675813da508c8U, 0x3dc863263e522aa9U,
  0xbdc797063e3d3518U, 0x3ceeaf563d98f8efU, 0x3e19d0763da2c91fU, 0x3d3c4ada3e1c5056U,
  0xbab635953e3dac34U, 0x3e0066a6399f92ccU, 0x3e4ec68f3e00313bU, 0x3e4c646abc98dcb7U,
  0xbe0138d5bdf4e315U, 0x3bf0b97d3d789cdfU, 0x3e22051b3e6986a3U, 0xbda183933d3a0f3bU,
  0x3e04e77ebdb829ceU, 0xbc26863cbdfd55ccU, 0xbd40dc4bbcb345ccU, 0x3d335362be2e6375U,
  0x3ca2588abd2fb048U, 0xbd2f5cd83db595aaU, 0xbd38e6f83e00265dU, 0xbd548950bcb292a5U,
  0x3db2151bbde813e3U, 0x3e2ea2bbbde37b67U, 0xbe07a16f3e20ca85U, 0x3db808b23dd3dddbU,
  0x3e53b2c3bd808679U, 0x3ddffc183ddb855fU, 0x3e07d2733d08ec33U, 0x3dcbcaf13dc8c668U,
  0xbd9bb6053e510ab2U, 0x3e165b08bd2c8b6eU, 0x3e541a94bb1324faU, 0x3c8293a23e2ecdc6U,
  0x3e5d50293ce24617U, 0x3d7b066f3cb3b655U, 0x3c46e8293c7eaf5bU, 0x3d3ad0d3bd752e12U,
  0xbe011341ba832c62U, 0x3ddfb5f2bced5f17U, 0x3e38c9863da908d7U, 0xbdcba6063e4a124fU,
  0x3deed85e3d1a4ab7U, 0x3ca64c583c4d2707U, 0x3db55caf3da98978U, 0x3982efc53d99292cU,
  0xbd624e753d8093baU, 0x3e4ef79d3e2d22fcU, 0xbd39392abe00590aU, 0xbd0432113e12560bU,
  0xbd9c13363dbe740aU, 0xbce6ad563e00833eU, 0xbc0f2b54bdcfffd4U, 0xbbe33e9dbd5a4c11U,
  0xbd36b5133e0aac7dU, 0xbdf07d9a3d443ba5U, 0xbc8ceef4bd5d9d16U, 0x3d1067b3be2e829eU,
  0x3d290404bc48a6c3U, 0xbd852116bd92e4dfU, 0xbd5ae3c43d4f22dcU, 0xbe0549653cb90a70U,
  0x3c47e913bd6dfaa3U, 0xbd525499bd318bceU, 0xbd303dc03d24277bU, 0xbdfe27c83d6a2169U,
  0xbd83f696bcd08ab9U, 0xbe343ae33d036bfcU, 0xbd8e3adebd1ec5ebU, 0xbd6b6d0f3e003a48U,
  0xbca633093e02315dU, 0xbcfeee86bd1850ccU, 0xbe2f1cf83dbff04bU, 0xbe21eb0dbe27d862U,
  0x3cef60a23d902876U, 0x3da4dc193cba99c4U, 0xbd0a7628bdaa4982U, 0xbcfdbc3ebca57f9eU,
  0x3d4b27913da1310bU, 0x3d5c78a13e0670d7U, 0xbe33d8c63db07fa4U, 0xbbe65d253d821978U,
  0xbda6c696bd6385acU, 0xbd1359e3bdd169bbU, 0x3e00c20abcd3721eU, 0xbd520d0fbe0bb020U,
  0xbd4d6e79bd9a8d31U, 0xbce67652be19f805U, 0x3dc4b83a3db37c75U, 0xbc90519cbd443014U,
  0x3d99f74ebb6af0e3U, 0x3caefaf7bd273268U, 0x3e0c6e673d2ffdd0U, 0x3e22d807bdd47f27U,
  0x3d2cf6a8bdc0d762U, 0x3e1a172d3bc8f880U, 0x3df24809bce2aba8U, 0xbe01fd8e3cdc64e1U,
  0x3da8754d3da6a212U, 0xbd7d896d3d159594U, 0x3d4a285c3dcd208bU, 0xbd161edbbdd2b57cU,
  0xbe25f2c5be30255fU, 0x3e04abff3cb2dcfbU, 0xbe141b2b3e0ea3afU, 0xbced89fcbd82125aU,
  0xbe218764be10c6d6U, 0x3de267e8bded0325U, 0xbc99cdb23da5b180U, 0x3d9bebfd3bbb320aU,
  0xbd5ef0113ddd0f5dU, 0x3ddafc023ce44beaU, 0x3db40e6bbca3cdd2U, 0xbd1cad903b88caa8U,
  0xbd624160bd058fdcU, 0xbdb985c8be250ff8U, 0xbe29a9cb3d9cdaa9U, 0xbad33244bd12491dU,
  0x3d9061423dbcc591U, 0xbd9913b43dff8eafU, 0x3dd4b1183d8aed91U, 0x3dbd883c3de32531U,
  0xbd1ed572bd1cac98U, 0xbd90f7e4bd7628f4U, 0xbdcf6a903d91f3a3U, 0x3cac81323e038c8fU,
  0x3cd3f92abdbaf03aU, 0x3d60ee84bdb4a358U, 0xbe1d72633e070bf7U, 0xbe081c92bd3a23f0U,
  0xbd62e022bd24fa58U, 0x3dbd32ba3dc14f4eU, 0x3d6ca2c63d59c874U, 0xbdc6c3f13d3e5308U,
  0x3d808dc5be24b067U, 0x3da1fea83d815f88U, 0x3d59a5693cd1830aU, 0xbe311caf3da8f249U,
  0xbddf8ada3dca53e5U, 0x3d87c381bc9d6611U, 0xbe2972e4be1466e2U, 0x3b6ef29fbd141d6bU,
  0xbddf072a3cadcd59U, 0xbdc7f476bdeb38b0U, 0x3d96c84e3dbe04f4U, 0x3da3db983d87fe32U,
  0xbd1838d1be2e9592U, 0xbe087cd23c8883e7U, 0x3dbb5eb4bd6d9be9U, 0xbd8b819f3d223543U,
  0xbdd1d6dd3c9bafafU, 0xbe31b8233cf3a73eU, 0x3c81f3583b8b47caU, 0xbd5f20ad3dc5efdfU,
  0xbd15e658bdde2d40U, 0x3e026cfabd770560U, 0x3b3a481fbd7befa8U, 0xbdad58883c9f92c7U,
  0xbdcd34223e087900U, 0xbdaa37933dd518aaU, 0x3e0d15e5bde14e44U, 0x3e03c0e93dc4a356U,
  0x3dd8c532bded3f73U, 0xbd20ea10be0619ddU, 0xbc87585d3cfe38adU, 0x3a25d0003e0b66dbU,
  0xbd546c643cd6ef28U, 0x3cfbccd8bd3ec798U, 0x3dd788713cecf360U, 0xbdc2cc7f3dac37d5U,
  0xbc961308bca7c8deU, 0xbc9f01313d53fc7eU, 0x3bc3339ebc0b3298U, 0x3d6edb9dbc8c84e4U,
  0xbce21675bcc1c0c3U, 0xbc4e6c9dbc9ef414U, 0xbf1e975abeee71bcU, 0xbf010c6b3f085cf8U,
  0xbe830b1cbec6236cU, 0x3f061f99be49c428U, 0xbeb44d07bf69a122U, 0x3e8fe3923dd81c1eU,
  0x3f5156233f3079f6U, 0xbe152edfbf4cb264U, 0x3f02804a3d979a61U, 0xbf014d803e063efbU,
  0xbec2cdd03ef87ac6U, 0xbef364183ed64de0U, 0xbe49e079be30bf9aU, 0x3ee93fd03cb5802bU,
  0xbef2af04be890fc3U, 0x3eb06a293c8ae28dU, 0xbe5386483f048c92U, 0xbd5c7dc4be5cb4c9U,
  0xbde5a82fbe9e1a6eU, 0xbd839b2abe2e09efU, 0xbeb37d7ebee7695aU, 0x3de4d5e5bf03a0d5U,
  0x3f0136cf3f0e8393U, 0xbe1ef9d93f013bf4U, 0xbe4c14af3f850627U, 0xbe63f6fabf421c94U,
};


ai_buffer g_network_data_map_activations[AI_NETWORK_DATA_ACTIVATIONS_COUNT] = {
  AI_BUFFER_INIT(AI_FLAG_NONE,  AI_BUFFER_FORMAT_U8,
    AI_BUFFER_SHAPE_INIT(AI_SHAPE_BCWH, 4, 1, 1728, 1, 1),
    1728, NULL, NULL),    /* heap_overlay_pool */
  };
ai_buffer g_network_data_map_weights[AI_NETWORK_DATA_WEIGHTS_COUNT] = {
  AI_BUFFER_INIT(AI_FLAG_NONE,  AI_BUFFER_FORMAT_U8,
    AI_BUFFER_SHAPE_INIT(AI_SHAPE_BCWH, 4, 1, 12256, 1, 1),
    12256, NULL, s_network_network_weights_array_u64),   /* network_weights_array */
  };


/*!
 * @brief Get network activations buffer initialized struct.
 * @ingroup network_data
 * @param[in] ptr a pointer to the activations array storage area
 * @return an ai_buffer initialized struct
 */
AI_DEPRECATED
AI_API_ENTRY
ai_buffer ai_network_data_activations_buffer_get(const ai_handle ptr)
{
  ai_buffer buf = AI_BUFFER_INIT(
    AI_FLAG_NONE, AI_BUFFER_FORMAT_U8,
    AI_BUFFER_SHAPE_INIT(AI_SHAPE_BCWH, 4, 1, AI_NETWORK_DATA_ACTIVATIONS_SIZE, 1, AI_NETWORK_DATA_ACTIVATIONS_COUNT),
    AI_NETWORK_DATA_ACTIVATIONS_SIZE,
    NULL, ptr);
  return buf;
}

/*!
 * @brief Get network weights buffer initialized struct.
 * @ingroup network_data
 * @param[in] ptr a pointer to the weights array storage area
 * @return an ai_buffer initialized struct
 */
AI_DEPRECATED
AI_API_ENTRY
ai_buffer ai_network_data_weights_buffer_get(const ai_handle ptr)
{
  ai_buffer buf = AI_BUFFER_INIT(
    AI_FLAG_NONE, AI_BUFFER_FORMAT_U8|AI_BUFFER_FMT_FLAG_CONST,
    AI_BUFFER_SHAPE_INIT(AI_SHAPE_BCWH, 4, 1, AI_NETWORK_DATA_WEIGHTS_SIZE, 1, AI_NETWORK_DATA_WEIGHTS_COUNT),
    AI_NETWORK_DATA_WEIGHTS_SIZE,
    NULL, ptr);
  return buf;
}


/*!
 * @brief Get network weights array pointer as a handle ptr.
 * @ingroup network_data
 * @return a ai_handle pointer to the weights array
 */
AI_DEPRECATED
AI_API_ENTRY
ai_handle ai_network_data_weights_get(void)
{
  static const ai_u8* const s_network_weights_table[1 + 2] = {
    AI_PTR(AI_MAGIC_MARKER),
    AI_PTR(s_network_network_weights_array_u64),
    AI_PTR(AI_MAGIC_MARKER)
  };

  return AI_HANDLE_PTR(s_network_weights_table);

}


/*!
 * @brief Get network params configuration data structure.
 * @ingroup network_data
 * @return true if a valid configuration is present, false otherwise
 */
AI_API_ENTRY
ai_bool ai_network_data_params_get(ai_network_params* params)
{
  if (!params) return false;
  
  const ai_buffer_array map_activations = 
    AI_BUFFER_ARRAY_OBJ_INIT(AI_FLAG_NONE, AI_NETWORK_DATA_ACTIVATIONS_COUNT, g_network_data_map_activations);
  
  const ai_buffer_array map_weights = 
    AI_BUFFER_ARRAY_OBJ_INIT(AI_FLAG_NONE, AI_NETWORK_DATA_WEIGHTS_COUNT, g_network_data_map_weights);

  return ai_platform_bind_network_params(params, &map_weights, &map_activations);
}


AI_API_DECLARE_END
